11111111111111111101010010111111
00000000000000000110011100111101
11111111111111111111101101101011
11111111111111111110010111010000
00000000000000000000101011000001
11111111111111111101100010010000
11111111111111111110011110010101
00000000000000000001011101101101
11111111111111111101001001001101
00000000000000000010011001010001
