11111111110010100000000000011010111111110010010000000001000110001111111011101110000000001100000100000000011110010000000001101010000000001010110111111110010111100000000001101111111111111010011111111111110100111111111110011001111111111110100011111111110101110000000000001001111111110100001111111111100100110000000001110110111111111000001011111111101010011111111100110111000000000110100000000001011101110000000000011011111111111100010011111110101011010000000010000001111111101111010100000000100111010000000000010010000000000101011011111110101101000000000000010010000000001001110111111110011100111111111100100100000000000101001011111111101111011111111110110010111111111010001011111110110100110000000000010001111111110011100111111110011101110000000011111000000000001101100000000000101011011111111010111000
11111110110111011111111111001101111111111101000011111111001110000000000100110111000000001110010111111110110000011111111110111111111111111111001000000000111100000000000001001011000000000010000011111110111100101111111110001011000000000110101011111111000001010000000100010100111111111010000011111110011111101111111101010011000000000110010011111111011110000000000000101010000000000011111011111110010010000000000000110110000000001000001011111111110111101111111001010011111111111110001000000000000011001111111011001110111111101101010000000000010101010000000011101111111111100000001011111111111101100000000110111000111111111010100111111111000101111111111101001010000000000001111100000000001011001111111011111110111111110110111000000000110110100000000000000011111111101100101100000000010000110000000011011111
11111110111011010000000000100111111111101001110011111111111001111111111101011110000000000111111111111111100010110000000001010101111111110010001100000000000100000000000001100111111111101010010011111110100001001111111101000110000000001100101011111111010011101111110111101100111111100101010100000000100010110000000000001011000000000111000011111110011011101111111010011101000000000110000100000000010010001111111011110011000000001100000100000000001000100000000010011101000000000001011000000000110111101111111100011101000000000010110011111111110000110000000001011100111111111010011100000000101010111111111010001010000000000010011000000000000110010000000011101110000000001110001100000000011010100000000010101010000000001011110100000000010110001111111111111110111111111000011000000000011000100000000000110000
00000000010111100000000001000110111111111001011011111110101111101111111111011110111111111110011000000000011110110000000001000000000000001011000000000000011000100000000001100110000000000000100111111111011000100000000010101000111111111100010111111110111001001111111110011101111111100111111111111111011001011111111010001111000000000111000000000000010011111111111111111101111111110110000011111110111111110000000011100101111111111001101011111111111011000000000011000010111111101000101000000000001100111111111100001110000000000000010011111111100110010000000001111100000000001000010100000000110111111111111101001101111111101110101000000000011001101111111100011110111111110110101100000000010001100000000010101001111111110100100111111111111101110000000000000001111111110111100111111111110010111111111111100101
00000000011011110000000001000110000000000101000111111111001011110000000011100101000000000000110000000000001000011111111101101000111111111001110011111111000000111111111001111110111111111011010000000000111110000000000010110100111111111010000100000000000100000000000000111011000000000110111000000000010110011111111111001110111111101111111000000000000000010000000011000001000000010100000100000000010101001111111110001100000000000001011100000000011100100000000001000101111111111011100111111110101000110000000001001111111111100110010100000000001011100000001000001010111111110111101000000000011011000000000010010000000000000001011111111111101000101111111101111101000000001101100111111111011110111111110111101100000000000010100011111111110001001111111010110110000000000110101011111111100000101111111101101011
11111111101101010000000000000111000000000001100100000000100011101111111001011110111111110011100000000000101101110000000001000100111111110010101000000000110011100000000000110011000000001001110100000000101010010000000010000100111111101111111111111111100111000000000010010001000000000000101011111111100100011111111111011001111111111001100000000000100111111111111110010001111111101000110111111110100101001111111110001001111111101100101111111111000101001111111110011001111111111000111011111111001100101111111110110100000000001011110000000000001101101111110111101010000000000100110111111111101010100000000101001011000000001011101111111111111101100000000011111100111111111000110111111111110010100000000001001000111111111111111000000000001000011111111100100101000000001011110111111111000110101111111011011011
11111111110001101111111111001100000000000010010000000000111010110000000000111100111111111010101111111111010000110000000001101000000000001000011111111110100101110000000010000011111111110110101111111111111000011111111101000010111111101111001100000000010110100000000010000010000000001011100000000000000111000000000011001011111111110100010100000000000111111111111101100111111111111110001000000000000010101111111100110011111111101100111000000000110000011111111111100100000000000011110011111110100000010000000001000010111111111111100111111110111010101111110110101100111111111010011111111111010101001111111011001100111111100100110111111110101111111111111101101011000000001111000100000000000010001111111100011000000000000100100100000000000011101111111101010001000000000011011000000001001001111111111111111111
00000000010110101111111111101100111111110101011000000000001000111111111101000101111111110111101111111111100111111111111000000001000000001110110111111111010111011111111011101100000000001000011011111111010010101111111101001000111111111001101011111111110100111111111010110001111111111001110011111111000001100000000000110101000000000011101011111111000100101111111110100100000000000001001011111111110100100000000010100100111111111101010111111111001001111111111011000011000000001110010000000000100000000000000001100111111111101111000100000000101001110000000100110000000000000101000100000000000110000000000101101101000000001011110000000000000010010000000001110011111111011111001011111111100100000000000100000111111111110101001111111111000010010000000010111110111111111010101111111110001110000000000010100011
11111111010011110000000000110011000000001001110011111111001100000000000001001110111111111100000100000000000000101111111111011110111111111001111111111111000111100000000001100001000000000110001000000000010110100000000001001110000000000111111100000000010011101111111101111111111111111110010011111111101011000000000000001110000000000111011100000000010100001111111011001111111111110011001100000000101100111111111101110011000000001010010011111111110011011111111110001000000000001011100111111111100001100000000000101011000000000111111011111111110110101111111101100110000000000101011111111111101001011111110111001110111111110011001100000000001000110000000000001110111111111010100000000000000101001111111110101111000000001011001011111111111100101111111101111000000000000100011111111110010100011111111111011010
00000000011100111111111110110011111111111101010011111111101101101111111011101010111111100111000111111111110001101111111001111101111111111000100000000000001100001111111001111000000000000111011111111111111011001111111101010001000000000011011000000000100111001111111111110100000000000111000100000000000100001111111101010001111111111110110100000000010100100000000011000101111111111000100111111111100110110000000000110110111111110110000100000000110100001111111110110101000000000011100111111111111111000000000010000101111111111110110100000000101000011111111010000000111111101111111011111110111001011111111011000001000000000101001100000000101011101111110110101101111111110011101111111110101101101111111101100001111111111010011111111111111000110000000001000011111111101100110000000000101001100000000010100110
