0000000000000000000000000000000000000000000000000000000000000000111111111111110000000000000000000000000000000000000000000000000000000000000000001111111111111110000000000000100111111111111001001111111111010111111111111111001011111111111111000000000000000000000000000000000000000000000110110000000000001000111111111111001100000000001001000000000000100010111111111101100100000000000000100000000000000000000000000001100100000000001000011111111111101110000000000011001000000000010001110000000000001111000000000000000000000000000000000000000000011101000000000101001111111111111001000000000001011001000000000101101000000000000111011111111111110001000000000000000000000000000101001111111111100110111111111001010000000000001100110000000000101000000000000000100111111111111111100000000000000000000000000000110011111111111011100000000000000100111111111111000111111111111101101111111111110100000000000000000000000000000000000000000000000101000000000001011000000000000101010000000000011011000000000000000100000000000000000000000000000000
0000000000000000000000000000000000000000000000000000000000000000000000000000000000000000000000000000000000000000000000000000000000000000000000000000000000000000000000000000000000000000000000000000000000000000000000000000000000000000000000000000000000000000000000000000000000000000000000000000000000000000000000000000000000000000000000000000000000000000000000000000000000000000000000000000000000000000000000000000000000000000000000000000000000000000000000000000000000000000000000000000000000000000000000000000000000000000000000000000000000000000000000000000000000000000000000000000000000000000000000000000000000000000000000000000000000000000000000000000000000000000000000000000000000000000000000000000000000000000000000000000000000000000000000000000000000000000000000000000000000000000000000000000000000000000000000000000000000000000000000000000000000000000000000000000000000000000000000000000000000000000000000000000000000000000000000000000000000000000000000000000000000000000000000000000000000000000000000000000000000000000
0000000000000000000000000000000000000000000000000000000000000000000000000000000100000000000000000000000000000000000000000000000000000000000000001111111111101011111111111011010011111111111001100000000000100100000000000001000100000000000110110000000000000000111111111111111111111111110011111111111111111001000000000001101011111111110000011111111111101111000000000100000111111111111111110000000000000000111111111110001000000000010100110000000001111111000000000011111111111111111010101111111111100000000000000000000000000000000000001111111111010111111111111110010100000000010110000000000001011110000000000010010111111111111101001111111111100100000000000000000111111111110111101111111111011000111111111110000000000000000101001111111111101011111111111100101111111111111111000000000000000000111111111101010011111111110101010000000000011111000000000010001011111111111101011111111111100000000000000000000000000000000000000000000000000010111111111111010111111111111001011111111111010011111111111101011000000000000000000000000000000000
0000000000000000000000000000000000000000000000000000000000000001000000000001001000000000000000100000000000000000000000000000000000000000000000000000000000000000111111111110011011111111110100011111111111100011000000000011011100000000000011100000000000000000000000000000000111111111111111011111111111001001000000000101110000000000010001101111111111011100000000000000111000000000000001110000000000000000000000000000100000000000011000010000000000001111111111110111000011111111110001000000000000110011000000000000000000000000000000001111111111100100000000000001011100000000001001001111111110111110000000000011010000000000001101011111111111110000000000000000000000000000001001010000000000100101000000000100000100000000001011100000000001101100000000000100000100000000000000000000000000000000111111111111110011111111101111000000000001010111111111111101110011111111111110100000000000000100000000000000000000000000000000000000000000000000000000000000111000000000000001100000000000010100000000000000001100000000000000000000000000000000
0000000000000000000000000000000000000000000000001111111111111101111111111111101100000000000000000000000000000000000000000000000000000000000000000000000000000000111111111111001100000000000000010000000001011001000000000001110111111111101101010000000000000000000000000000000000000000000010100000000000001000111111110110011000000000001111011111111110110100111111111110111011111111111110010000000000000000000000000000000111111111110100010000000000000011000000000110011011111111011100111111111111111101000000000000000000000000000000001111111111111100111111111101011111111111111111100000000000111000111111111111111100000000000000001111111111110000000000000000000011111111110011101111111111010101000000000101001000000000001000101111111111011111111111111011001111111111111110110000000000000000000000000000010011111111101010001111111111010001000000000010111111111111110111101111111111110101000000000000000000000000000000000000000000000000111111111111010011111111110010101111111110110001111111111111111100000000000000000000000000000000
0000000000000000000000000000000000000000000000001111111111111111111111111111111000000000000000000000000000000000000000000000000000000000000000000000000000001001000000000010000000000000001011000000000001100111111111111111000111111111111001110000000000000000000000000000000000000000000010010000000000000111111111111011011000000000001001111111111111110110111111111101011111111111111111010000000000000000111111111111110111111111110010001111111111000110111111111110011011111111101001000000000000111010000000000000000000000000000000000000000000100101111111111111100011111111111011111111111111001101111111111100011000000000000101010000000000001101000000000000000000000000000011010000000000100010000000000110000100000000001000010000000000000001000000000000010100000000000000010000000000000000000000000001001111111111111101000000000000010100000000000010001000000000000001000000000000001101000000000000000000000000000000001111111111111100111111111110101111111111111011001111111110111100000000000000100000000000000000000000000000000000
0000000000000000000000000000000000000000000000001111111111111111111111111111101000000000000000000000000000000000000000000000000000000000000000001111111111111100000000000000101000000000000011011111111111111000000000000000000100000000001011000000000000000000111111111111111111111111111110010000000001010000111111111111111000000000001000000000000000110010000000000010110000000000000001110000000000000000111111111110111000000000001111100000000000110001111111111110011011111111111101010000000000000011000000000000000000000000000000000000000000001010000000000001000100000000000111101111111111110110000000000100000100000000000110110000000000000000000000000000000000000000001101101111111111010111111111111001011100000000000000100000000000111101000000000000010000000000000000010000000000000000000000000000010100000000001111110000000001011011000000000100001100000000000110011111111111110101000000000000000000000000000000000000000000000000000000000000000000000000000000001111111111111110111111111110110000000000000000000000000000000000
0000000000000000000000000000000000000000000000000000000000000001000000000000110100000000000000000000000000000000000000000000000000000000000000000000000000000111000000000010001100000000010110010000000001111011000000000101010100000000000101000000000000000000111111111111110111111111111010100000000000100111000000000000010100000000000111000000000000000111000000000100001100000000000001100000000000000000111111111100010111111111110011100000000001010111111111111011100011111111100110101111111111110111000000000000000000000000000000001111111111111110000000000001101000000000010110111111111111001001000000000001010000000000000101111111111111111111000000000000000000000000010010000000000000101111000000000011011100000000000010000000000001011011000000000010110000000000000000100000000000000000000000000001100000000000000110100000000000111111000000000011001100000000001000000000000000001011000000000000000000000000000000001111111111111011111111111101110011111111111100111111111111101011111111111110010100000000000000000000000000000000
0000000000000000000000000000000000000000000000001111111111111111000000000000101000000000000000010000000000000000000000000000000000000000000000000000000000000011000000000001001000000000000111010000000001011001000000000001100111111111110000011111111111111111000000000000001100000000010011111111111111111000111111111101010000000000001111000000000000001111111111111100011111111111111111000000000000000000000000000010010011111111111101000000000000001001000000000000010000000000000101100000000001000101000000000000000000000000000000000000000000110011111111111111100111111111101011010000000000011110000000000101100100000000001100111111111111100110000000000000000100000000000100111111111111111100000000000000101100000000001001010000000000110101111111111111111011111111111111010000000000000000000000000001000111111111111010100000000000101101111111111100101011111111101100011111111111110101000000000000000000000000000000000000000000000110000000000001110100000000000100100000000000010111111111111111100000000000000000000000000000000000
0000000000000000000000000000000000000000000000001111111111111111111111111111100111111111111111110000000000000000000000000000000000000000000000000000000000000001111111111111100100000000001010000000000000001111000000000001110100000000000011000000000000000000000000000000000000000000000000011111111111110010111111111111010100000000000000101111111111000000111111111110001000000000000000000000000000000000111111111111111011111111111000000000000000011001000000000110001011111111111000001111111110111110000000000000000000000000000000001111111111100100111111111000010111111111100010001111111110101001111111111010100011111111111111100000000000011000000000000000000000000000000111001111111111011000000000000010011000000000001011111111111111001011000000000010100000000000000000000000000000000000000000000010000000000000010111100000000000010011000000000010000000000000000000100000000000001010000000000000000000000000000000001111111111111110111111111111100000000000000101101111111111110110000000000000100000000000000000000000000000000000
0000000000000000000000000000000000000000000000000000000000000001000000000001001100000000000000000000000000000000000000000000000000000000000000000000000000000000000000000001100000000000011001010000000010000110000000000101001011111111111101010000000000000000000000000000000000000000000000110000000000000111000000000000010100000000001001101111111111111000000000000010100000000000000000000000000000000000111111111101100011111111111010010000000001011100111111111110000111111111101101011111111111110110000000000000000000000000000000000000000000000011111111111100100000000000010011101111111110110000111111111110101000000000000100011111111111111110000000000000000000000000001100000000000000101100000000000110010011111111111000000000000001011100000000000010011000000000000000000000000000000000000000000000110000000000001010100000000001100001000000000100111111111111111111010000000000000001000000000000000000000000000000001111111111111011111111111110100011111111111100101111111111011011111111111111011100000000000000000000000000000000
0000000000000000000000000000000000000000000000000000000000000000111111111111101100000000000000000000000000000000000000000000000000000000000000001111111111101111111111111100001111111111110101001111111111011000111111111110000000000000000100100000000000000000000000000000000011111111111111010000000000001000000000000100000000000000011000110000000000100101000000000001001100000000000000000000000000000000000000000001010100000000011000010000000001001111000000000011001100000000000010011111111111011101000000000000000000000000000000001111111111110110111111111101000011111111111011000000000000100011000000000000011100000000000000011111111111110001000000000000000011111111111100011111111110101001111111111010100100000000000011001111111111111010111111111101101011111111111110110000000000000000111111111110011000000000001001100000000001001110000000000010000111111111110111101111111111100001000000000000000000000000000000000000000000000110000000000001101100000000000000100000000000001101000000000000001100000000000000000000000000000000
0000000000000000000000000000000000000000000000000000000000000010111111111111110000000000000000000000000000000000000000000000000000000000000000001111111111101011111111111100001011111111111111001111111111101000000000000001010100000000010001000000000000000000111111111111110111111111101111100000000000101100111111111110110111111111101100000000000000011100000000000101000000000000000001110000000000000000111111111101110000000000100010110000000001000011111111111111000100000000000000111111111111100001000000000000000000000000000000001111111111001101000000000010111100000000010110100000000001001100000000000110010011111111111110111111111111101010000000000000000011111111111010101111111111011000111111111010011000000000001100001111111111111110111111111101101000000000000000000000000000000000111111111101001111111111110101100000000000011000111111111111110100000000001100011111111111100101000000000000000000000000000000000000000000000000111111111110111011111111111010101111111111010101111111111101110100000000000000000000000000000000
0000000000000000000000000000000000000000000000000000000000000000111111111111011111111111111111110000000000000000000000000000000000000000000000001111111111110111111111111111101100000000000111000000000000001110000000000001010100000000001101100000000000000000111111111111111011111111111110100000000001011011111111111101010111111111110000100000000001000011000000000101111000000000000010000000000000000000111111111101101000000000000110010000000001001001000000000010011111111111111010001111111111010100000000000000000000000000000000001111111111101110000000000000010100000000001010010000000001001010000000000101000100000000000000000000000000000000000000000000000000000000000111011111111111001000111111110111011000000000000001110000000000011010111111111110011011111111111111100000000000000000111111111111110100000000001011110000000000000110000000000100010100000000000110111111111111101011000000000000000000000000000000000000000000000000111111111111011011111111111100101111111111001001111111111101100100000000000000000000000000000000
0000000000000000000000000000000000000000000000000000000000000001111111111111100111111111111111110000000000000000000000000000000000000000000000000000000000000010000000000001101000000000000001010000000000100001111111111101110011111111111011110000000000000000000000000000000011111111111101100000000000101111000000000000011011111111110010000000000000111000111111111111010011111111111101000000000000000000111111111111000011111111110110111111111111011011000000000110111100000000000101010000000000000010000000000000000000000000000000001111111111111000111111111100100100000000001110111111111111101110111111111000001111111111110101000000000000100010000000000000000111111111111001110000000001011000000000000101100100000000000001111111111111001000111111111110001000000000000001000000000000000000111111111111101100000000000011011111111111111110000000000000010000000000000001010000000000000110000000000000000000000000000000001111111111111100111111111110110100000000000000010000000000001101000000000000100100000000000000000000000000000000
0000000000000000000000000000000000000000000000000000000000000000000000000000010000000000000000000000000000000000000000000000000000000000000000001111111111110010111111111100110111111111111110111111111111101010111111111111110011111111111110110000000000000000000000000000000011111111110110111111111111110000000000000111100111111111111101000000000000001010111111111101101111111111111110010000000000000000000000000001001000000000100001010000000000110110000000000001110100000000011010010000000000001101000000000000000000000000000000001111111111111001000000000011001100000000011000100000000000011100000000000011001111111111111110011111111111101111000000000000000011111111101110010000000000101011000000000001011100000000000010001111111111111100111111111101111111111111111111110000000000000000111111111101010111111111101101000000000000010001111111111110000000000000000100011111111111110011000000000000000000000000000000000000000000000010111111111111111111111111111100010000000000010101000000000000100000000000000000000000000000000000
0000000000000000000000000000000000000000000000001111111111111011000000000000001000000000000000000000000000000000000000000000000000000000000000000000000000000000111111111010100111111111101111100000000000100010000000000010011000000000000110100000000000000000000000000000000011111111111101001111111101000010111111111101101100000000000101111111111111110101000000000010000100000000000010100000000000000000111111111110100100000000000000100000000001010000111111111111111011111111101010011111111111111000000000000000000000000000000000001111111111100010111111111110011100000000010111010000000000001010000000000000110111111111111010101111111111001100000000000000000000000000000100011111111101111101111111111111001100000000001111011111111110111110111111111011110011111111111101110000000000000000111111111110100111111111111010100000000000001111111111111111001111111111110001001111111111111000000000000000000000000000000000000000000000000000111111111111000011111111111011101111111111001011111111111111110000000000000000000000000000000000
0000000000000000000000000000000000000000000000001111111111111110000000000000011000000000000000010000000000000000000000000000000000000000000000001111111111101111111111111100101011111111101000111111111111110100000000000100110100000000000101100000000000000000111111111111111011111111111000011111111110101101000000000010111111111111110101011111111110101110111111111110100000000000000000010000000000000000000000000000011000000000011101000000000000011110000000000010100100000000000001101111111111111011000000000000000000000000000000001111111111010110111111111111001000000000100010000000000001110111000000000100000100000000000010011111111111010111000000000000000011111111101110101111111111010010111111111111110111111111111110110000000000100101111111111100001011111111111110110000000000000000111111111101011111111111011100110000000000010011111111111101110000000000001000001111111111110101000000000000000000000000000000000000000000000000111111111111101011111111111011011111111111101100111111111111011000000000000000000000000000000000
0000000000000000000000000000000000000000000000000000000000000011000000000000001000000000000000000000000000000000000000000000000000000000000000000000000000001001000000000010010000000000000010101111111111101000000000000001111000000000000001100000000000000000111111111111111011111111110111100000000000011011111111111111011011111111110111110000000000000111000000000000001100000000000000000000000000000000111111111110011000000000000101101111111110110010111111111111101000000000001001101111111111110011000000000000000000000000000000001111111111110110000000000110011100000000011001110000000000101100000000000010011011111111111011010000000000001011000000000000000011111111111101010000000001010111000000000010011100000000000011110000000000011000000000000001010000000000000001100000000000000000000000000000100011111111110100101111111111011100111111111110000000000000001111010000000000010100000000000000000000000000000000001111111111111011111111111110011111111111111111110000000000000100000000000000000100000000000000000000000000000000
0000000000000000000000000000000000000000000000000000000000000010000000000000111000000000000000010000000000000000000000000000000000000000000000001111111111111011111111111110010100000000001010110000000000101100000000000011010000000000000010110000000000000000000000000000000111111111111011000000000000001110000000000100000111111111111101001111111111010100000000000001001000000000000000000000000000000000000000000000011100000000011001010000000000000100111111111011000000000000000101000000000000011000000000000000000000000000000000001111111111000101111111111110100100000000000010111111111111111100000000000101001111111111111111111111111111110101000000000000000011111111110111000000000000110100000000001001010100000000000011010000000000100100000000000000100100000000000000100000000000000000111111111110000111111111101100100000000001000110111111111101101000000000001001010000000000000111000000000000000000000000000000000000000000000000000000000000000011111111111110100000000000000111111111111111010000000000000000000000000000000000
0000000000000000000000000000000000000000000000000000000000000000111111111111110100000000000000000000000000000000000000000000000000000000000000000000000000000000000000000001110000000000000111110000000000011010111111111101111111111111110111010000000000000000000000000000000100000000000111010000000000100010111111111111100100000000001111110000000000111111000000000000100111111111111110010000000000000000000000000000101011111111101110000000000000011000000000000101101000000000000111001111111111110011000000000000000000000000000000000000000000011001111111111100001111111111111111100000000000001000111111111100111111111111111001100000000000010101000000000000000011111111111110110000000000010111000000000010100111111111111111101111111111111111111111111111101000000000000000100000000000000000000000000000010100000000010101010000000000100000000000000001011111111111111111001111111111111110000000000000000000000000000000000000000000000000000000000000011000000000000111100000000000011100000000000001100000000000000000000000000000000000
0000000000000000000000000000000000000000000000000000000000000000000000000000001000000000000000000000000000000000000000000000000000000000000000001111111111110000111111111100101111111111111111000000000000001100000000000000111000000000000101100000000000000000111111111111110111111111110100101111111111110110000000000011111011111111111111010000000000001101000000000001010000000000000000100000000000000000111111111110001000000000010101100000000010001000000000000011011111111111111011101111111111000111000000000000000000000000000000000000000000000010000000000010011100000000011010110000000000100001000000000010111100000000000011111111111111100110111111111111111100000000000011111111111111000101111111111000110011111111111101010000000000110111111111111101101011111111111110100000000000000000111111111110100000000000000010000000000000110110000000000100011100000000000001101111111111011111000000000000000000000000000000000000000000000010111111111111100011111111111100001111111111101001111111111111011000000000000000000000000000000000
0000000000000000000000000000000000000000000000001111111111111111111111111111001100000000000000000000000000000000000000000000000000000000000000001111111111111110111111111110111011111111110010111111111110110010111111111011111011111111111111101111111111111111111111111111111011111111111001111111111111100111000000000001011111111111110110101111111111110110111111111110110000000000000001010000000000000000000000000000110100000000001001001111111110111010000000000101011100000000001011110000000000001010000000000000000000000000000000000000000000100000000000001000101100000000010100100000000001101011000000000010000100000000000011001111111111110000000000000000000000000000000010001111111110000001111111111100101100000000001010011111111110101100111111111111011011111111111111000000000000000000000000000001100111111111110110111111111110001110111111111110101111111111111011111111111111111100000000000000000000000000000000000000000000000100000000000000101000000000000000111111111111101111111111111111111000000000000000000000000000000000
0000000000000000000000000000000000000000000000001111111111111111111111111111011100000000000000000000000000000000000000000000000000000000000000000000000000000010000000000000110011111111111001101111111111011000000000000000100100000000000110110000000000000000000000000000000000000000000010001111111111100101000000000000011011111111010111100000000000100100000000000001101000000000000001010000000000000000111111111111111111111111110001100000000000011001111111111100001000000000001100010000000000100010000000000000000000000000000000001111111111111001000000000011000111111111110110001111111111111000000000000100100011111111111011100000000000001000000000000000000011111111111010101111111111011010000000000011111100000000001010011111111110111101111111111111011100000000000000000000000000000000000000000000100011111111110000011111111111011111111111111111110100000000000011100000000000001011000000000000000000000000000000001111111111111111111111111111010011111111111111111111111111100011111111111110110100000000000000000000000000000000
0000000000000000000000000000000000000000000000000000000000000000000000000000000100000000000000000000000000000000000000000000000000000000000000001111111111111010000000000000000011111111110110010000000001001011111111111101011000000000000011101111111111111111000000000000000011111111111010111111111111111110000000000101100111111111100001100000000001100110000000000000001011111111111011110000000000000000111111111111111000000000001100100000000000011000111111111000011000000000011000000000000010000010000000000000000000000000000000000000000001000001000000000100000111111111110110101111111111110011111111111101100111111111111111010000000000000101000000000000000011111111111011000000000001010110000000000111101000000000001001111111111111101001111111111110111000000000000000000000000000000000111111111101111100000000000101010000000001010010111111111111001011111111111001101111111111111000000000000000000000000000000000001111111111111110111111111110100011111111111101010000000000001000111111111110111000000000000000000000000000000000
0000000000000000000000000000000000000000000000001111111111111110111111111111101000000000000000000000000000000000000000000000000000000000000000001111111111111110000000000001000100000000000011010000000000011111111111111101001111111111110111110000000000000000000000000000001000000000001111011111111111110011111111111101010000000000010111100000000000100001111111111101000011111111111111100000000000000000000000000010010011111111110010100000000000001001000000000011110000000000001010100000000000100000000000000000000000000000000000000000000001000110111111111111001011111111100100100000000000001100000000000010010100000000001001111111111111111000000000000000000000000000001001101111111110110111111111111010000100000000001110000000000000010101111111111111101111111111111111010000000000000000000000000001100000000000001110100000000000011111000000000000110111111111110001101111111111101111000000000000000000000000000000000000000000000110000000000001100100000000000110100000000000100001000000000000100100000000000000000000000000000000
0000000000000000000000000000000000000000000000000000000000000001111111111111100111111111111111110000000000000000000000000000000000000000000000001111111111111111000000000001000000000000000011010000000001010101111111111111001100000000000001100000000000000000000000000000000011111111111101110000000001011000000000000000010011111111111000000000000001000001000000000001101011111111111100010000000000000000111111111111011111111111110101101111111110111111000000000110011000000000000100111111111111110011000000000000000000000000000000001111111111110101111111111000101100000000001010000000000000011101111111111010010011111111101101110000000000000000111111111111111111111111110101110000000000101101000000000011111111111111111111101111111110110111111111111101101100000000000000110000000000000000111111111111001100000000000000001111111111111110000000000010011011111111111111100000000000000011000000000000000000000000000000001111111111111101111111111110101111111111111001101111111111100101000000000000010000000000000000000000000000000000
0000000000000000000000000000000000000000000000000000000000000001000000000000010100000000000000010000000000000000000000000000000000000000000000000000000000000100000000000000011011111111111001011111111111011010000000000010000111111111111000110000000000000000111111111111110111111111110111011111111111110101000000000010010011111111111101101111111111100110111111111110001111111111111110100000000000000000111111111111011011111111111100101111111111100000000000000111101100000000010100011111111111100101000000000000000000000000000000000000000000010111000000000111001100000000100001010000000001100000111111111111010111111111111100001111111111111000111111111111111111111111111100110000000001001110000000000001111111111111111101111111111111011110111111111111011100000000000000000000000000000000000000000000010111111111101011111111111110111101111111111110000100000000001001010000000000000111000000000000000000000000000000001111111111111100111111111110101011111111111111001111111111111111000000000001011000000000000000000000000000000000
0000000000000000000000000000000000000000000000000000000000000011000000000000000100000000000000000000000000000000000000000000000000000000000000000000000000001111000000000101100100000000010100110000000000110001000000000000010100000000000000010000000000000000111111111111110100000000000000100000000000101000111111111101000000000000000101010000000001000010111111111101110000000000000000000000000000000000111111111110010111111111101100011111111111010010111111111111110111111111110010110000000000011001000000000000000000000000000000000000000000110110000000000110000000000000000101010000000000011010000000000001101100000000000111000000000000001110000000000000000000000000010011100000000001010110111111111011111011111111111010000000000001011101000000000011000000000000000001100000000000000000000000000011000000000000000101001111111111111001000000000000100000000000001000100000000000010001000000000000000000000000000000001111111111111111111111111111010100000000000100000000000000000011111111111111010000000000000000000000000000000000
0000000000000000000000000000000000000000000000000000000000000001000000000000010100000000000000000000000000000000000000000000000000000000000000001111111111110011111111111110111011111111110100111111111111011101000000000010010111111111111110100000000000000000000000000000001011111111111111110000000000111101000000000100101100000000001111011111111111011010000000000000100111111111111101100000000000000000000000000010100000000000001011010000000000111100000000000010101000000000010111011111111111110110000000000000000000000000000000001111111111010110111111110110110000000000000000010000000001100100111111111110100011111111110101011111111111111101000000000000000011111111101010011111111111010110000000001001000000000000000001111111111111111001111111111010100000000000000000010000000000000000111111111100100111111111110011111111111111111110111111111101010100000000000001011111111111110110000000000000000000000000000000000000000000000011000000000000111100000000000000000000000000100010000000000001100100000000000000000000000000000000
0000000000000000000000000000000000000000000000000000000000000001111111111111011000000000000000000000000000000000000000000000000000000000000000000000000000001111000000000101000000000000001000000000000000110100111111111100101011111111110001000000000000000000000000000000001100000000001100100000000000011010111111111110010100000000011101000000000001010110111111111100011011111111111110100000000000000000000000000001011111111111101100111111111110100011111111111110010000000000010011000000000000111011000000000000000000000000000000000000000001000111111111111110000011111111110000011111111111010111111111111100000100000000000000110000000000101101000000000000000000000000001000100000000001000000000000000011011000000000001010000000000000000100000000000010100000000000000001010000000000000000000000000010001100000000010110100000000000100110000000000001110011111111111011100000000000010011000000000000000000000000000000001111111111111111000000000001001000000000001010100000000000111111000000000010010000000000000000000000000000000000
0000000000000000000000000000000000000000000000000000000000000000000000000000001000000000000000000000000000000000000000000000000000000000000000001111111111110011111111111100111111111111110011110000000000000011111111111111100000000000000000010000000000000000000000000000000011111111111100111111111111111011000000000011100100000000000001100000000000101110111111111110100111111111111111000000000000000000000000000010000000000000100010110000000000100000111111111110100000000000010100110000000000100011000000000000000000000000000000001111111111111001000000000010111100000000000100000000000001001001000000000011101100000000000001101111111111101100000000000000000011111111110010010000000000010001000000000000000000000000000101011111111111101010111111111110101111111111111111110000000000000000111111111101110111111111110110000000000000001001111111111110001011111111110100011111111111110001000000000000000000000000000000000000000000000100000000000000110111111111111110010000000000011010000000000000001000000000000000000000000000000000
0000000000000000000000000000000000000000000000000000000000000010000000000000100100000000000000000000000000000000000000000000000000000000000000001111111111111011000000000000101000000000001001110000000000000011000000000010001100000000000001100000000000000000000000000000000011111111110110010000000000110000000000000110111000000000011000000000000000010011000000000001011011111111111111000000000000000000111111111110011100000000001111010000000001100000111111111101000111111111111011101111111111100111000000000000000000000000000000000000000000001100000000000001001000000000011101001111111110110110111111111011110000000000000011100000000000000101000000000000000000000000001010000000000000100000111111111101001011111111110000000000000001011111000000000010011000000000000000110000000000000000111111111111101000000000010001010000000001110110000000000110000000000000001010011111111111111101000000000000000000000000000000001111111111111101111111111111001011111111111110000000000000100110000000000001000100000000000000000000000000000000
0000000000000000000000000000000000000000000000001111111111111111111111111111000011111111111111110000000000000000000000000000000000000000000000001111111111111111111111111110110111111111101011101111111110001110111111111010010100000000000001100000000000000000000000000000000000000000000001101111111111110100000000000011110000000000010101110000000001001010000000000000110000000000000000100000000000000000000000000001101100000000000111111111111111010110000000000011001000000000000011101111111111010010000000000000000000000000000000001111111111100001000000000001001011111111110100100000000001010110111111111100100111111111110010000000000000001101000000000000000011111111110100001111111110111101111111111110111000000000001011011111111110100000111111111101011111111111111111110000000000000000111111111111001000000000000100101111111111011111111111111110111000000000000100001111111111111101000000000000000000000000000000000000000000000011000000000001100000000000000100110000000000010100000000000001001100000000000000000000000000000000
0000000000000000000000000000000000000000000000000000000000000000111111111110000100000000000000000000000000000000000000000000000000000000000000000000000000001011000000000000101111111111110000001111111110111001000000001000000000000000001111100000000000000000000000000000001000000000001111001111111111001111000000000000011111111111000101110000000010000001000000000110011000000000000010100000000000000000000000000000110011111111111011100000000000100000111111111111011100000000100101000000000000110101000000000000000000000000000000001111111111101110000000000001010000000000000011101111111111110001000000000101101111111111110110100000000000000000000000000000001011111111111001111111111111110001000000000001111111111111111000001111111111010100111111111011111000000000000000000000000000000000000000000001000000000000001011100000000001001110111111111011000000000000000100010000000000001011000000000000000000000000000000000000000000000011000000000000100011111111111111001111111111110011111111111101111100000000000000000000000000000000
0000000000000000000000000000000000000000000000000000000000000000000000000000001100000000000000000000000000000000000000000000000000000000000000001111111111111001000000000001011000000000001001010000000001010101000000000000101100000000000101000000000000000000000000000000001000000000001001100000000001010100000000000011000100000000000111000000000001100100000000000010000100000000000000100000000000000000000000000000000100000000010010000000000001010110111111111110100111111111111100110000000000010111000000000000000000000000000000000000000000000011111111111101001111111111100111110000000000000010000000000100000100000000000101010000000000000000000000000000000100000000001001110000000000010000111111111101011111111111110011100000000001101001000000000000101000000000000000000000000000000000000000000000000000000000011000010000000001110100000000000100110011111111111101001111111111110001000000000000000000000000000000000000000000000010000000000001000100000000000001100000000000011110111111111110101000000000000000000000000000000000
0000000000000000000000000000000000000000000000000000000000000001111111111111101000000000000000000000000000000000000000000000000000000000000000000000000000001111000000000100011000000000001111110000000000100111000000000010010011111111111101010000000000000000000000000000000000000000010000000000000001001011111111111000100100000000001010111111111111011110000000000000011000000000000000000000000000000000111111111110111111111111100101001111111111000001000000000110011011111111101101101111111111001100000000000000000000000000000000000000000000000101111111111110000011111111111010110000000001110101000000000010110100000000000000110000000000000000000000000000000000000000001100011111111111101010111111111110001111111111111010010000000000110101000000000010011100000000000001000000000000000000000000000010100100000000010101101111111111011000000000000100011000000000001010000000000000001111000000000000000000000000000000001111111111111110111111111111111000000000000011111111111111010110111111111111101000000000000000000000000000000000
0000000000000000000000000000000000000000000000000000000000000000111111111111100100000000000000000000000000000000000000000000000000000000000000000000000000000000111111111110000011111111111110001111111111011101000000000111000100000000100100010000000000000010000000000000001100000000001100110000000000001110111111111110011111111111010101001111111110000100111111111000101000000000000000000000000000000000000000000011000100000000001101000000000001001111111111111011001100000000010101001111111111011011000000000000000000000000000000001111111111100101111111110111100011111111101011101111111110101111000000000010101100000000000111100000000000000000000000000000000000000000000100101111111111011110111111110111100100000000010110010000000000101111000000000011100100000000000000000000000000000000111111111111101100000000000011111111111110111111000000001011111000000000001100000000000000001000000000000000000000000000000000000000000000000000000000000000001111111111110111010000000000001001000000000001011100000000000000000000000000000000
0000000000000000000000000000000000000000000000001111111111111111111111111110110011111111111111110000000000000000000000000000000000000000000000000000000000001011000000000000011111111111101100011111111110001111111111111001001100000000000100111111111111111110000000000000000100000000000110011111111111110000000000000100011100000000010110110000000001111001000000000100011100000000000010110000000000000000000000000001001100000000000111100000000000001101111111111001100100000000000000010000000000010101000000000000000000000000000000001111111111100100000000000101010111111111101100100000000000000101000000000010001100000000000010010000000000011101000000000000000000000000000110101111111111011011111111111110011100000000010110111111111111001001111111111110111100000000000000010000000000000000111111111111110100000000000010100000000000001110111111111100011111111111111011100000000000000111000000000000000000000000000000000000000000000010000000000001110000000000000100100000000000011111000000000000101000000000000000000000000000000000
0000000000000000000000000000000000000000000000000000000000000000111111111111010100000000000000000000000000000000000000000000000000000000000000000000000000000001000000000001111011111111111110011111111111011100111111111101000111111111111110110000000000000000000000000000000000000000000000110000000001001001000000000100111100000000001111010000000001000010111111111110010111111111111110110000000000000000000000000000100100000000001000111111111111010011000000000101100100000000010101011111111111101111000000000000000000000000000000000000000000101011111111111111011000000000001001000000000000110000111111111110111011111111111010100000000000000000000000000000000000000000000011101111111111011000111111111001100011111111111011100000000000101100111111111111100000000000000000110000000000000000000000000000011100000000010010000000000000011111000000000101000000000000000110001111111111111101000000000000000000000000000000000000000000000000000000000000011100000000000101000000000000111000000000000001100100000000000000000000000000000000
0000000000000000000000000000000000000000000000000000000000000010000000000000000100000000000000000000000000000000000000000000000000000000000000000000000000001000000000000001111100000000010010011111111111010010000000000001111100000000010010010000000000000000000000000000000011111111111101000000000001100111000000000100111000000000001110000000000000011110000000000110010000000000000010010000000000000000111111111100110100000000000010111111111111111010111111111010011111111111110010011111111111010000000000000000000000000000000000001111111110001001111111111101101111111111101001011111111111100101111111111101100111111111111011000000000000011111000000000000000100000000000000100000000000101010000000000110100000000000000100111111111111101000000000000010101100000000000001110000000000000000111111111111100000000000010011000000000000111100000000000011111000000000001100010000000000010101000000000000000000000000000000001111111111111110000000000000011111111111111110010000000000000001111111111100100000000000000000000000000000000000
0000000000000000000000000000000000000000000000000000000000000001000000000000100000000000000000010000000000000000000000000000000000000000000000000000000000001110000000000010000100000000010000010000000000111000000000000110010000000000000101100000000000000000111111111111101111111111110111101111111111011101111111111101101011111111101100001111111111010101000000000010000100000000000001100000000000000000111111111100110011111111111111111111111111111000000000000001010111111111110111111111111111011100000000000000000000000000000000001111111111001001000000000011011100000000011000000000000000011110000000000010111111111111111011000000000000000010000000000000000011111111111110100000000001000010000000000111111100000000010010011111111111101000000000000010001000000000000001000000000000000000000000000000111111111111100110001111111110101000111111111111100100000000001010100000000000011110000000000000000000000000000000001111111111111000111111111100100000000000000100011111111111011111111111111101111000000000000000000000000000000000
0000000000000000000000000000000000000000000000000000000000000001000000000000011100000000000000000000000000000000000000000000000000000000000000000000000000000101000000000001101000000000001101110000000000111010000000000011100111111111111111110000000000000000000000000000000000000000000101100000000000001100111111111100001000000000000110011111111111000000000000000011011011111111111111110000000000000000111111111110111111111111101101010000000000001001000000000011110111111111101000101111111111000111000000000000000000000000000000001111111111111001111111111111011000000000001010100000000000111000000000000000010011111111111101100000000000001001000000000000000000000000000100010000000000011000000000000100001111111111110110010000000000110010000000000001001000000000000000100000000000000000000000000000111000000000001010111111111111101100000000000010000000000000001010100000000000000111000000000000000000000000000000001111111111111101111111111111000011111111111110011111111111001110000000000000101000000000000000000000000000000000
0000000000000000000000000000000000000000000000000000000000000010000000000000001100000000000000000000000000000000000000000000000000000000000000000000000000001101000000000100100000000000001100100000000000011100000000000000011011111111111100100000000000000000000000000000000000000000001001100000000000111011000000000101010100000000011011100000000000101011000000000000111100000000000000000000000000000000111111111110010011111111101010011111111110100011111111111010110011111111110010111111111111111001000000000000000000000000000000000000000000000010111111111011100011111111110100110000000001000010111111111110011100000000000001010000000000000000000000000000000100000000001110110000000000000001111111111110110000000000000100010000000001010011000000000011000100000000000001100000000000000000000000000010001000000000100111010000000001100110000000000100010011111111111000000000000000001101000000000000000000000000000000000000000000000001000000000010100000000000001110100000000001001011111111111100000000000000000000000000000000000000
0000000000000000000000000000000000000000000000000000000000000010000000000000010100000000000000000000000000000000000000000000000000000000000000001111111111111101111111111111110000000000001100010000000000010111000000000010101000000000000110010000000000000000111111111111111111111111110101100000000000101101000000000011110111111111110000100000000000011111000000000100011111111111111111100000000000000000111111111110001100000000001000010000000000011011000000000000110100000000000000001111111111011001000000000000000000000000000000001111111111001101111111111111011000000000011011100000000000101100111111111111101111111111110100110000000000001011000000000000000011111111110110110000000001000001000000000110011111111111111100110000000000000110000000000000000100000000000001000000000000000000111111111110011100000000000010011111111111111010000000000000011100000000010110010000000000001001000000000000000000000000000000001111111111111011111111111110001111111111111011101111111111101101111111111111101100000000000000000000000000000000
0000000000000000000000000000000000000000000000000000000000000000000000000000001000000000000000000000000000000000000000000000000000000000000000000000000000000101000000000000000100000000000111011111111111110101000000000001111100000000000010100000000000000000000000000000000011111111111101101111111110111101111111111110011111111111111110011111111111011001000000000010100000000000000000110000000000000000111111111111001111111111110010100000000000100001000000000101011111111111101100001111111111001101000000000000000000000000000000001111111111011100111111111111010100000000001010010000000000000001111111111011100111111111110111000000000000000110000000000000000011111111111100100000000000000110000000000011111011111111111101111111111111110101000000000001000000000000000000000000000000000000000000000000010000000000000101101111111111011100000000000011011100000000000100010000000000001001000000000000000000000000000000001111111111111011111111111111001000000000000001011111111111011110111111111111110100000000000000000000000000000000
0000000000000000000000000000000000000000000000001111111111111111000000000000000000000000000000000000000000000000000000000000000000000000000000000000000000000111000000000010010000000000000100010000000000100011111111111100010111111111110001110000000000000000000000000000001100000000001011111111111111111010000000000010100000000000011101110000000000011010111111111001111111111111111101010000000000000000000000000010110011111111111110111111111111001011111111111110101100000000010101000000000001010011000000000000000000000000000000000000000001010000000000000000010111111111101100101111111111000011111111111101011100000000000111010000000000001010000000000000000000000000000100110000000000010100000000000010000000000000000110100000000000011100000000000001001000000000000000010000000000000000000000000001001000000000001100100000000000101111111111111110110111111111110000000000000000000110000000000000000000000000000000000000000000000011000000000001110100000000000101110000000001001000000000000010001000000000000000000000000000000000
0000000000000000000000000000000000000000000000000000000000000001000000000000010100000000000000000000000000000000000000000000000000000000000000001111111111110101111111111101110100000000000110010000000000110111000000000100100000000000010000000000000000000000000000000000000011111111111000100000000000100001000000000001010111111111110011110000000000101000000000000101110100000000000010100000000000000000111111111110010100000000100000000000000010000000111111111000001011111111110100000000000000100001000000000000000000000000000000001111111111001000000000000000111111111111111111011111111111010010000000000101111000000000000110001111111111110101000000000000000000000000000010110000000000001011000000000001011000000000000111110000000000101011000000000000000100000000000000000000000000000000111111111110011100000000000001110000000001111000000000000001100000000000000111001111111111110110000000000000000000000000000000000000000000000000111111111111001111111111110111111111111111100101111111111100101100000000000000000000000000000000
0000000000000000000000000000000000000000000000000000000000000000000000000000111100000000000000010000000000000000000000000000000000000000000000000000000000000000111111111110110000000000001001010000000000100100111111111111001111111111110111010000000000000000111111111111110011111111110011101111111110100000000000000101001100000000001100111111111101110101111111111010100011111111111111110000000000000000000000000000011011111111111111010000000000100011111111111000101000000000001010100000000000100011000000000000000000000000000000000000000001001110000000001010100100000000010100111111111111001110000000000001000100000000001100111111111111110100111111111111111100000000000100000000000001001001000000000100011100000000010001010000000000010100000000000100011000000000000000010000000000000000000000000000000111111111010100101111111110110111111111111011101011111111111001110000000000000101000000000000000000000000000000000000000000000000000000000000010111111111110101111111111111101001000000000000001000000000000000000000000000000000
0000000000000000000000000000000000000000000000001111111111111111000000000000000100000000000000000000000000000000000000000000000000000000000000000000000000000011000000000001000111111111111010001111111111100110111111111110010111111111110001000000000000000000000000000000001000000000001000101111111110101001000000000010110000000000010110110000000000000001111111111001111011111111111100110000000000000000000000000010100111111111101110001111111110110100000000001010010100000000001000101111111111110111000000000000000000000000000000000000000000010110111111111110101011111111111000000000000000100111111111111101000011111111111001010000000000000101000000000000000011111111110001100000000000010011000000000110100000000000000100101111111111001000111111111111011011111111111111110000000000000000000000000000100000000000000110011111111111001111000000000001000111111111111100110000000000000101000000000000000000000000000000000000000000000010000000000001001100000000000110000000000000101101000000000010110100000000000000000000000000000000
