00000000000000000011101101011100
11111111111111111110101000111001
00000000000000000000011000011101
00000000000000000001101110111111
00000000000000000110101100011000
00000000000000000110110111100100
11111111111111111111011110111011
00000000000000000001010000100101
00000000000000000010101001011100
00000000000000000101101101111111
00000000000000000001010000011010
00000000000000000100011111001010
00000000000000000001011111100001
11111111111111111111110101010111
00000000000000000011001111101110
00000000000000000000110110111000
00000000000000001000100100101100
00000000000000000011000010101010
00000000000000000001001010100100
00000000000000000001001000101001
00000000000000000010001000111111
00000000000000000000110000110101
00000000000000001000100100111011
00000000000000000110010001010110
11111111111111111110101100101110
00000000000000000100010101011000
00000000000000000001001100100000
00000000000000000101100110000001
00000000000000000000010111010001
00000000000000000010101101110011
00000000000000000100110110101101
00000000000000000000001110111011
11111111111111111101111100100111
00000000000000001011001000100001
11111111111111111101101111000001
11111111111111111011111101011100
00000000000000000011010101000100
00000000000000000100000101011111
00000000000000000101010001001101
11111111111111111111010011101000
11111111111111111111001001101001
00000000000000000101010101111010
00000000000000000010100001111011
11111111111111111110100010001111
11111111111111111110111100001011
00000000000000000111101111110101
00000000000000000101010100001010
11111111111111111111101011010001
00000000000000000101011000010110
00000000000000001001111011101111
