00000000000000000000000000000000000000000000000000000000000000000000000000000000000000000000000000000000000000000000000000000000000000000000000000000000000000000000000000000000000000000000000000000000000000000000000000000000000000000000000000000000000000000000000000000000000000000000000000000000000000000000000000100101111111111111111111100100010111001111111111111111111010000100010000000000000000000001110110000100000000000000000001101101111000010000000000000000010010101010110000000000000000000000001010111011000000000000000000000000100000001111111111111111111111001111110100000000000000000011000111101000111111111111111111101000100011101111111111111111011101101101101011111111111111110101011011010100111111111111111110011110101011110000000000000000000000000000000000000000000000000000000000000000000000000000000000000101110010000000000000000000000101111100001000000000000000000001100111001011000000000000000000111010001110010000000000000000001100000111011111111111111111111111001001011110000000000000000000000000000000001111111111111111111111111111111111111111111111111111111001001101111111111111111110000000011110001111111111111111110101101000000011111111111111111010110011010010000000000000000000011001111001010000000000000000001110000011010000000000000000000000000000000000111111111111111111111111111111110000000000000000000001100110000111111111111111111111000111100011111111111111111110100111011100111111111111111111110110100010001100000000000000000001000101011011000000000000000000111101001110100000000000000000000000000000000000000000000000000000000000000000111111111111111111111100110010110000000000000000000001110000011100000000000000000011000101011101000000000000000001001111011111010000000000000000001110010100011100000000000000000000000010100100000000000000000000000000000000000000000000000000000000000000000000000000000000000000000000000000000000000000000000000000000000001111111111111111111111110100001111111111111111111111111000101110000000000000000000010010001010110000000000000000000000000000000000000000000000000000000000000000
00000000000000000000000000000000000000000000000000000000000000000000000000000000000000000000000011111111111111111111111011011110111111111111111111100100110111001111111111111111111111011010110100000000000000000000000000000000000000000000000000000000000000000000000000000000000000000000000011111111111111111111100000111111111111111111111111011111011010111111111111111111110110010100001111111111111111111011111111111010111111111111111111010010010111000000000000000000000110010001110000000000000000000000000000000101000000000000000000000000001111001111111111111111111101100010110000000000000000000001001101011010000000000000000000111011010111101111111111111111111000000010000100000000000000000011010100111001000000000000000000000011110101001111111111111111111111101111000011111111111111111111111111111111000000000000000000100100110101010000000000000000000111011010010011111111111111111111110010101101000000000000000001000010011100110000000000000000010001111000101000000000000000000000110010111010000000000000000000000000000000010000000000000000000000000000000011111111111111111111001001111000111111111111111111111101110100101111111111111111110111001110010100000000000000000011101100110111000000000000000000100111111000001111111111111111111100100010000111111111111111111111101110100010000000000000000000000000000000111111111111111111110111011101111111111111111111111101001010110100111111111111111110111011000011000000000000000000001110000000000011111111111111111101010011110100111111111111111111100000101110011111111111111111111111001100101000000000000000000000000000000000111111111111111111101001011110111111111111111111111111010100110100000000000000000000010110010011111111111111111111110101011001000000000000000000000011010100001111111111111111111111001100100001000000000000000000000000110111100000000000000000000000000000000000000000000000000000001101001011000000000000000000011001101101010000000000000000000011111001011100000000000000000000100101110111000000000000000000000000000100010000000000000000000000000000000000000000000000000000000000000000
00000000000000000000000000000000000000000000000000000000000000001111111111111111111111111111110000000000000000000000000010010110111111111111111111111111000001001111111111111111111111111110001000000000000000000000000000000000000000000000000000000000000000000000000000000000000000000000000000000000000000000000101101101011000000000000000001011101001111110000000000000000010010000011110011111111111111111111100111101111000000000000000000010010011000110000000000000000000011101011010111111111111111111111111101001001111111111111111111111110100001010000000000000000000010010000111000000000000000000101001110111001111111111111111111100001000010111111111111111111110110110000101100000000000000000010101010100100000000000000000000011011110010111111111111111111111110111011100100000000000000000000000000000001111111111111111111011111101011111111111111111111110000011101101011111111111111111011010000100110000000000000000000001111011001010000000000000000000101001001100011111111111111111111101010101100000000000000000000000000000000000000000000000000000000000000000000000000000000000001110001001111111111111111111111100100010011010000000000000000001010000010001100000000000000000000000110011001111111111111111111011001011101111111111111111111111001101000001100000000000000000011000001101010000000000000000000000000000000000000000000000000001001100111001100000000000000000100011010010011000000000000000001000010010010010000000000000000000101011111011011111111111111111111001111111111000000000000000000101000001010110000000000000000000010000010111000000000000000000000000000000000000000000000000000101100111001001111111111111111111111100010100111111111111111111101000100010001000000000000000000110100111001110000000000000000010100001011010000000000000000000010001000000100000000000000000000000000101001000000000000000000000000000000000011111111111111111111101011111001111111111111111111100110000110011111111111111111111100111101100111111111111111111111000011001100000000000000000000010010101111110000000000000000000000000000000000000000000000000000000000000000
00000000000000000000000000000000000000000000000000000000000000000000000000000000000000000000000011111111111111111111111011010100111111111111111111110000101100011111111111111111111111100111100000000000000000000000000000000000000000000000000000000000000000000000000000000000000000000000000000000000000000000000000001111010111111111111111111111111111110110000000000000000000100100110010011111111111111111100101111010010111111111111111110011010111011010000000000000000000010011001001111111111111111111111111111011001000000000000000000000011000000010000000000000000000111101011000000000000000000000000010010010000000000000000000000100101001111100000000000000000011100010011100000000000000000000011100010110010000000000000000000001111000111110000000000000000000001010001111100000000000000000000000000000000000000000000000000110001111100010000000000000000001111011011010000000000000000000000100001001110111111111111111111010101011100010000000000000000001001001101000111111111111111111111111001110010000000000000000000000000000000110000000000000000000000000000000000000000000000000000001110100101000000000000000000001011011000011111111111111111110011010000001100000000000000000001100101000000000000000000000000001000000101101111111111111111111101011110101000000000000000000000110001100111000000000000000000000000000010110000000000000000000011101110100111111111111111111100010010111100111111111111111111001010001001000000000000000000001110100111111100000000000000000000100100000111111111111111111111101100000101011111111111111111111111110101001000000000000000000000000000000000000000000000000000010001011001010000000000000000001100001001001111111111111111111111010001110000111111111111111111100100100110111111111111111111111100101001111111111111111111111111110110100100000000000000000000000001000000010000000000000000000000000000000000000000000000000000001101100110000000000000000000101110101010110000000000000000000100101100111000000000000000000100000011101010000000000000000000001100000111010000000000000000000000000000000000000000000000000000000000000000
00000000000000000000000000000000000000000000000000000000000000001111111111111111111111111111110100000000000000000000000010110111000000000000000000011001011001000000000000000000000000101011111100000000000000000000000000000000000000000000000000000000000000000000000000000000000000000000000011111111111111111111101100011011111111111111111111011100000111111111111111111111111011011000011100000000000000000100100000010100000000000000000000100101111110111111111111111111111111101110001111111111111111111111111101000101111111111111111111111011110110011111111111111111101101110011110111111111111111111101000101111000000000000000000001010010111000101111111111111111111111110011101011111111111111111101001011100101111111111111111111111010001010111111111111111111111111011100101011111111111111111111111111111110111111111111111111010011010011000000000000000000000110011001111100000000000000000100011111111110000000000000000000010010101000001111111111111111110111010100011011111111111111111110111010011011000000000000000000000000000000001111111111111111111111111111111111111111111111111110100001100000000000000000000000011110000010000000000000000000100011000100110011111111111111111111101110001100000000000000000000100001110011100000000000000000000000110101101111111111111111111101101101110101111111111111111111111111111010001111111111111111111000011101100000000000000000000011000010101100000000000000000001110110000111010000000000000000001000110110111100000000000000000011010110010111000000000000000000100100101100111111111111111111111111110001111100000000000000000000000000000000111111111111111111100101000111101111111111111111100110011101000011111111111111111101111111101001000000000000000000000110101111000000000000000000000010000000011000000000000000000000001010010111111111111111111111111110111111000000000000000000000000000000000011111111111111111111111000011010111111111111111111010001101101101111111111111111111000011111100111111111111111111101101111001101111111111111111111100100111111000000000000000000000000000000000000000000000000000000000000000000
00000000000000000000000000000000000000000000000000000000000000000000000000000000000000000000000111111111111111111111111111110010000000000000000000001101111010100000000000000000000000011000000000000000000000000000000000000000000000000000000000000000000000000000000000000000000000000000000000000000000000000000000000000000111111111111111111100110001010100000000000000000000011010001010000000000000000000001101001100101000000000000000000011101011101101111111111111111111100100000100111111111111111111111111111110001111111111111111111111110110000001111111111111111111101111001000111111111111111111011101001101000000000000000000000010001010100111111111111111111110101010010000111111111111111111100101010100011111111111111111111110111000000010000000000000000000000111110111100000000000000000000000000000000111111111111111111111010110100100000000000000000000111101000101100000000000000000011010000110100111111111111111111011000100100010000000000000000000100001001011100000000000000000000110010010000000000000000000000000000000000000000000000000000000000000000000011111111111111111110001101001011000000000000000000100011110011000000000000000000001000001011010000000000000000000010100001111111000000000000000000111001001111000000000000000000000010111110011111111111111111111101100111000000111111111111111111111111111110011111111111111111111100101001010111111111111111111111010101110001000000000000000001010001111100100000000000000000001101011000101000000000000000000000110110001001000000000000000000000011101001011111111111111111111111100000011100000000000000000000000000000000111111111111111111111000110110001111111111111111011100111011010111111111111111111111001101001110111111111111111111010101101011111111111111111111111011011010101000000000000000000000000101110011111111111111111111111111010001010000000000000000000000000000000000000000000000000000000000000000111111111111111111101111110001101111111111111111111001001110110011111111111111111100110001001111111111111111111111101001110010000000000000000000000000000000000000000000000000000000000000000000
00000000000000000000000000000000000000000000000000000000000000001111111111111111111111111111111111111111111111111111111110101010000000000000000000000110110101000000000000000000000000000100100100000000000000000000000000000000000000000000000000000000000000000000000000000000000000000000000011111111111111111111011110110110111111111111111111100000101110000000000000000000001010000111010100000000000000000010001101111010111111111111111111111011101111100000000000000000000111111100010000000000000000000000000010011000000000000000000000000000100011100000000000000000000000001000111000000000000000000001111110001100000000000000000000100100100100100000000000000000000011110010110000000000000000000001111100111011000000000000000001000101001111010000000000000000000001100000111000000000000000000000000000000001111111111111111111110000111011100000000000000000001010100011000000000000000000000110101111101001000000000000000000101011100101001111111111111111101010111010100011111111111111111101000001110011111111111111111111111111111111010000000000000000000000000000000011111111111111111101110000100000111111111111111111000110010000100000000000000000001001000111111011111111111111111111100000111101000000000000000000001111001001010000000000000000000001010010101111111111111111111111011111001010111111111111111111111111111110110000000000000000000101101111111111111111111111111101101110010101111111111111111111010011001101111111111111111111111000010110000000000000000000000100110010100011000000000000000000001001001001111111111111111111111111011010011000000000000000000000000000000000111111111111111111110101100101100000000000000000001101101101101000000000000000000100001111010010000000000000000001100000011000011111111111111111111010101011100111111111111111111110011000011000000000000000000000000000101011110000000000000000000000000000000000000000000000000000000001111010111111111111111111111100000001010000000000000000000010011010010011111111111111111110110001011100111111111111111111101100010000000000000000000000000000000000000000000000000000000000000000000000
00000000000000000000000000000000000000000000000000000000000000000000000000000000000000000000001000000000000000000000000100101000000000000000000000000010110001010000000000000000000000000100100000000000000000000000000000000000000000000000000000000000000000000000000000000000000000000000000011111111111111111111110001111101000000000000000000010001101100011111111111111111111111011011101000000000000000000010011011110000111111111111111111110100001100101111111111111111111011110100100011111111111111111111111010100000000000000000000000000000110111100000000000000000000000000100111000000000000000000011100110111110000000000000000000000110111011101111111111111111111101000011001000000000000000000010001001100110000000000000000000010011001110011111111111111111111011010001101100000000000000000000000000000001000000000000000000000111111110010000000000000000000001111011011100000000000000000001011101010010000000000000000001011100101001000000000000000000001110010111100011111111111111111111111001100100000000000000000000000000000111010000000000000000000000000000000100000000000000000000001101101010111111111111111111001011101111100000000000000000010110000100101100000000000000000010010001000010111111111111111111111100010101001111111111111111110011100000101000000000000000000001000000001100111111111111111111111111111111101111111111111111110010011010101000000000000000000100101100101011000000000000000001001000001001111111111111111111110010111000011000000000000000000000111101001110000000000000000000000001001011100000000000000000000001000101011100000000000000000000000000000000111111111111111111100111001111000000000000000000000100100001100100000000000000000000011101011101000000000000000000000011000101000000000000000000000010000000000011111111111111111111111001101110111111111111111111111111100011100000000000000000000000000000000011111111111111111111111101010100111111111111111111111000110100010000000000000000000000010100110000000000000000000001000100010100000000000000000000010010000001000000000000000000000000000000000000000000000000000000000000000000
00000000000000000000000000000000000000000000000000000000000000001111111111111111111111111111111000000000000000000000000001110100111111111111111111111000100010101111111111111111111111111101001100000000000000000000000000000000000000000000000000000000000000000000000000000000000000000000000011111111111111111111010100100110111111111111111111011101001111011111111111111111111011111010101000000000000000000010001001110111000000000000000000001111010011000000000000000000000100100111000011111111111111111111111011111101111111111111111111111100000100111111111111111111110000010010111000000000000000000001010110001110000000000000000001001110011101101111111111111111101110100010000000000000000000000010010011110011000000000000000000011011000010011111111111111111111110110001100011111111111111111111111111111101111111111111111111110010111100110000000000000000010100011100010000000000000000000000110000010000000000000000000001010010100101100000000000000000010110100111100000000000000000000000001001101101000000000000000000000000000000100000000000000000000000000000000011111111111111111111011010101011000000000000000000101111011111110000000000000000011001111000111100000000000000000111100111000100000000000000000001011010011001011111111111111111111001111000101111111111111111111101111101100011111111111111111111111111111010111111111111111111110000110101101100000000000000000001111001111000111111111111111111101011000001111111111111111111111010111100100100000000000000000001111101011000111111111111111111000101100101011111111111111111111111110011101000000000000000000000000000000000111111111111111111001101000100011111111111111111100011110011010111111111111111111101100110010101111111111111111111100000100011110000000000000000010000000101000011111111111111111110111110011110111111111111111111111111000011010000000000000000000000000000000000000000000000000000000000000001111111111111111111100000100111101111111111111111111001110101101011111111111111111110100101011111111111111111111111110110100111110000000000000000000000000000000000000000000000000000000000000000
00000000000000000000000000000000000000000000000000000000000000000000000000000000000000000000000011111111111111111111111110100111000000000000000000000011110010000000000000000000000000001100100100000000000000000000000000000000000000000000000000000000000000000000000000000000000000000000000011111111111111111111011010000000111111111111111111000111011101010000000000000000000100001110011100000000000000000001001101001001000000000000000000111011001101100000000000000000001110010011000111111111111111111111111110011001111111111111111111111100011110011111111111111111101111110011111100000000000000000010001101110001000000000000000000110010011101001111111111111111101010001011111011111111111111111110001010101011000000000000000000110100001001010000000000000000000001011000010000000000000000000000000000000000111111111111111111011000010101110000000000000000011000110010101000000000000000000001110001110000111111111111111111000100011111110000000000000000000110100101001000000000000000000000101110101101000000000000000000000000000000000000000000000000000000000000000011111111111111111101100110101001000000000000000000111001100000000000000000000000001101000011111100000000000000000000001000101001000000000000000001000111000100111111111111111111111110111111000011111111111111111101101101011110111111111111111111111111111101101111111111111111110100110011101100000000000000000010011111011110000000000000000000011010111011000000000000000000001001000000000111111111111111111111111110110110111111111111111111111100001101001111111111111111111111101110111000000000000000000000000000000000111111111111111111001000110010001111111111111111111000001001011000000000000000000011011000000100111111111111111111100011001001100000000000000000001010011111011111111111111111111111010010011000111111111111111111111110111010100000000000000000000000000000000000000000000000000000000000000000111111111111111111011111100111111111111111111111111000111011100111111111111111111011011110111100111111111111111111010101111001010000000000000000000000000000000000000000000000000000000000000000
00000000000000000000000000000000000000000000000000000000000000000000000000000000000000000000000000000000000000000000000101000100000000000000000000000001111110111111111111111111111111111100001100000000000000000000000000000000000000000000000000000000000000000000000000000000000000000000000000000000000000000000100000010010000000000000000000111010000111010000000000000000010000111000111000000000000000000001101001110010000000000000000000101101000001101111111111111111111011101010110111111111111111111111111110001011000000000000000000000000000000000000000000000000000100100011010000000000000000000000000110111111000000000000000000001101010010110000000000000000000010100110101100000000000000000000011011101011000000000000000000111001010011101111111111111111111111101100101000000000000000000000000000000000111111111111111111011111111011011111111111111111101000101110011111111111111111111111000001101111000000000000000001101110111010001111111111111111110010110010110111111111111111111100101111001111000000000000000000000000000001100000000000000000000000000000000111111111111111111111111111011011111111111111111111000101101000100000000000000000000111001111101100000000000000000000101010010010111111111111111111000011111010011111111111111111110111001000111000000000000000000010001001111011111111111111111111111111111111110000000000000000001010101010001000000000000000000011101000001100000000000000000000100100111111101111111111111111110111000100110000000000000000000000111010001100000000000000000000011111101011010000000000000000000000111010110100000000000000000000000000000000000000000000000000101000110000010000000000000000011101001110001011111111111111111101101110001110000000000000000000100101000111000000000000000000001101010100101100000000000000000000111001111100111111111111111111111111000001010000000000000000000000000000000011111111111111111111110100010110111111111111111111110100101100011111111111111111111111011011101000000000000000000000101101001010000000000000000000001101100100010000000000000000000000000000000000000000000000000000000000000000
00000000000000000000000000000000000000000000000000000000000000000000000000000000000000000000000111111111111111111111111110111110000000000000000000010001000010110000000000000000000000010011000100000000000000000000000000000000000000000000000000000000000000000000000000000000000000000000000000000000000000000000100100010011000000000000000000110001001111100000000000000000001110110001011000000000000000000100000100110011000000000000000000001000111001001111111111111111110110000011011011111111111111111111111110010011111111111111111111111110111101111111111111111111111101000000100111111111111111111111101010110010000000000000000001010111011010011111111111111111111110010011111000000000000000000001011000001101111111111111111111100010011110001111111111111111111111101001000100000000000000000000000000000000111111111111111111110011101110111111111111111111111110111001010111111111111111111110100001010011111111111111111111010011010001110000000000000000001011011111000000000000000000000100011100100101111111111111111111111111110100011111111111111111111111111111111100000000000000000100000011011001000000000000000001001110111100011111111111111111111001011011110011111111111111111001111100110100000000000000000000000111000110010000000000000000001001011101000100000000000000000000101011001100111111111111111111111111111101100000000000000000001010000100000000000000000000000101101101001010000000000000000001000011001111101111111111111111111101000001110000000000000000000010100100110010000000000000000000011001100010110000000000000000000000111111011000000000000000000000000000000000000000000000000000011001010100001111111111111111111011101010101111111111111111111111011000000011111111111111111111010101001000101111111111111111111110110000001100000000000000000001110101011110000000000000000000000000100111100000000000000000000000000000000011111111111111111111110101010101111111111111111111101101011111110000000000000000000000001111001100000000000000000010011000101110000000000000000000001001000100100000000000000000000000000000000000000000000000000000000000000000
00000000000000000000000000000000000000000000000000000000000000000000000000000000000000000000000111111111111111111111111011010000111111111111111111111011001111001111111111111111111111111010000100000000000000000000000000000000000000000000000000000000000000000000000000000000000000000000000000000000000000000000000000000000000000000000000000000000001001011111111111111111111110110000010000000000000000000010101011011001111111111111111111110011000011111111111111111111111111000000111011111111111111111111111111111110000000000000000000000011100100110000000000000000001000010111110011111111111111111101111011110101111111111111111111100100110011010000000000000000000101110100101000000000000000000010011110110111111111111111111111111101010000110000000000000000000000001100100000000000000000000000000000000010000000000000000000100100000001000000000000000000010000001110110100000000000000000010100101000011111111111111111111000001111011100000000000000000000011111001111000000000000000000010010010100011000000000000000000000000000000101111111111111111111111111111111100000000000000000000000110001111111111111111111111011011110110101111111111111111110101011011010111111111111111111101000011101000000000000000000000010011100111110000000000000000000100110110000000000000000000000000110101111010000000000000000000000000000110100000000000000000000010111101101100000000000000000000100111011000000000000000000000010110110000110000000000000000000000101111101111111111111111111111010101101101111111111111111111111100110110010000000000000000000000001000100000000000000000000000000000000000111111111111111111111101010001100000000000000000000111010100100100000000000000000000000100110000111111111111111111011000010101101111111111111111110111001101010111111111111111111111111001110011000000000000000000000001010111010000000000000000000000000000000000000000000000000000000101001001000000000000000000011101101010101111111111111111111101110011111000000000000000000010011100101010000000000000000000001100110101000000000000000000000000000000000000000000000000000000000000000000
00000000000000000000000000000000000000000000000000000000000000001111111111111111111111111111110011111111111111111111111000111001000000000000000000000001101000100000000000000000000000000000001000000000000000000000000000000000000000000000000000000000000000000000000000000000000000000000000011111111111111111111110111011110111111111111111111011101101000001111111111111111011111001101100000000000000000000010010101010001000000000000000000011001100001101111111111111111111111111110111011111111111111111111111111111000000000000000000000000000000000001111111111111111111111110110111111111111111111111000111001000111111111111111111101101101110000000000000000000000011010100011000011111111111111111111001111111011000000000000000000001100011100000000000000000000000000111100000000000000000000000000000000000000111111111111111111111100101110011111111111111111110111011101110111111111111111111111101011010100000000000000000000101011110111110000000000000000000010101011100011111111111111111111111100101001000000000000000000000000000000000000000000000000000000000000000000000000000000000000010111101010111111111111111111101010000110000000000000000000010001110101011000000000000000000011010101011000111111111111111111100011110011101111111111111111111011011110100011111111111111111101010010010100000000000000000000000000000000001111111111111111111101011110010011111111111111111011001110001000000000000000000000001000110010011111111111111111111001001010000111111111111111111100011111011010111111111111111111011011101100101111111111111111111101010000000100000000000000000000000000000000111111111111111111101010111111001111111111111111110000101010010100000000000000000010011001000100111111111111111110011000000011011111111111111111110011011011001011111111111111111111111000101001000000000000000000000000000000000000000000000000000000000000000000000000000000000000000000000000111111111111111111101011001000101111111111111111111010011011000011111111111111111111001100110100111111111111111111110010100111110000000000000000000000000000000000000000000000000000000000000000
00000000000000000000000000000000000000000000000000000000000000000000000000000000000000000000000100000000000000000000000101000110000000000000000000000001010111111111111111111111111111111101100000000000000000000000000000000000000000000000000000000000000000000000000000000000000000000000000000000000000000000000010111110010000000000000000001001100011000110000000000000000001101010000011100000000000000000100100011100011000000000000000000000011001010001111111111111111110011110101010111111111111111111111111111110111000000000000000000000000000000000000000000000000001000100011011011111111111111111011000010001110111111111111111110010110001010010000000000000000000110111001011011111111111111111110110100001000111111111111111110110010001011110000000000000000000000000000000000000000000000000000000000000000000000000000000000000100100010011111111111111111101001101011011000000000000000000000011100100101000000000000000000001110010100001111111111111111110100010100001011111111111111111110110011010000000000000000000000000000000000001111111111111111111111111111111100000000000000000011101111100010000000000000000000011001001101100000000000000000000011000110011100000000000000000001110111111010111111111111111111110101111111110000000000000000001011110011111100000000000000000001101011101110000000000000000000000000000000000000000000000000001001010011110100000000000000000001100000010001111111111111111111110011111111010000000000000000001110001101101111111111111111111111110101011011000000000000000000110010010010110000000000000000000000011001000000000000000000000000000000000000000000000000000000111101000000000000000000000000000100111000111011111111111111111100010101010000000000000000000000011101110011000000000000000000000001010010101000000000000000000000001100111011111111111111111111111111101011110000000000000000000000000000000000000000000000000000000000000000111111111111111111111111101000001111111111111111111001000100100011111111111111111101011110011100000000000000000000000010000101110000000000000000000000000000000000000000000000000000000000000000
00000000000000000000000000000000000000000000000000000000000000001111111111111111111111111111111100000000000000000000000101000101000000000000000000000110000110010000000000000000000000001001111000000000000000000000000000000000000000000000000000000000000000000000000000000000000000000000000011111111111111111111110011101001111111111111111111111010011101011111111111111111110101001111111011111111111111111101100110011111000000000000000000011001100101110000000000000000000011110000101100000000000000000000000000110100111111111111111111111110010011101111111111111111110101111000100011111111111111111111011101110101000000000000000001000100100010110000000000000000000111010100101000000000000000000010100011101101000000000000000000011011101101011111111111111111111111001000000111111111111111111111111111111111111111111111111111110011101000100000000000000000000000101011100011111111111111111111000001100111000000000000000000010001010111001111111111111111110110101110011011111111111111111101000000111100000000000000000000000000000000100000000000000000000000000000000011111111111111111101001011001100111111111111111111110100011101000000000000000000010100101000100000000000000000000000111110011001111111111111111111001110000010101111111111111111110101100001010100000000000000000000100001001101111111111111111111111111111100001111111111111111111011101010101000000000000000000011111000110010000000000000000000100111010010101111111111111111111001011001000000000000000000000011000111001110000000000000000000010100000111100000000000000000000000111000111000000000000000000000000000000000111111111111111111101101001000100000000000000000000101010101101100000000000000000000100010001001000000000000000000011100110110010000000000000000010010101010110100000000000000000000001101000101000000000000000000000000000000000000000000000000000000000000000011111111111111111111111001001011111111111111111111100100111100000000000000000000000001100000110000000000000000000001011100010010000000000000000000001010010001100000000000000000000000000000000000000000000000000000000000000000
00000000000000000000000000000000000000000000000000000000000000000000000000000000000000000000000000000000000000000000000100110011111111111111111111111111100110111111111111111111111111111110100100000000000000000000000000000000000000000000000000000000000000000000000000000000000000000000000000000000000000000000001101010111000000000000000000100100110111000000000000000000000111010011011000000000000000000011011011100110000000000000000000110110001111110000000000000000000001110010110100000000000000000000000001100010111111111111111111111111111101110000000000000000001110010100011000000000000000000100001110110110111111111111111110100101011110000000000000000000000000110011111100000000000000000000100111100010111111111111111111100000110100111111111111111111111111111111110000000000000000000000000000000001111111111111111111110111111010111111111111111111101100111000111111111111111111111111110011110110000000000000000001000100111111001111111111111111110101011110001011111111111111111100110110111001000000000000000000000000000000001111111111111111111111111111111100000000000000000011000101000011000000000000000000001001110100001111111111111111111101110111001000000000000000000101001000011010000000000000000000101100001011110000000000000000001101000011011000000000000000000000000000000000000000000000000000000000000000000000000000000000001111100110101111111111111111111100011011111100111111111111111101100000100001111111111111111111111001010110110100000000000000000101101111010110000000000000000000010001011011111111111111111111111111110111101100000000000000000000000000000000000000000000000000101101110100100000000000000000010011010111011011111111111111111111011011001110000000000000000000011101100111111111111111111111111010011101011111111111111111111111000011100100000000000000000000000000000000000000000000000000000000000000000000000000000000000000000000000001000000000000000000000000101111100000000000000000000100010010010111111111111111111110000100011110111111111111111111101011000000110000000000000000000000000000000000000000000000000000000000000000
00000000000000000000000000000000000000000000000000000000000000001111111111111111111111111111111111111111111111111111111110011000000000000000000000000001101110100000000000000000000000001000101000000000000000000000000000000000000000000000000000000000000000000000000000000000000000000000000011111111111111111111111101011110000000000000000000001100000111100000000000000000000110001010100000000000000000000011001110110001000000000000000000000011101001100000000000000000001000101101110100000000000000000000000000000011000000000000000000000000000000011111111111111111111000110110001000000000000000000011010100110010000000000000000000100110100011011111111111111111111110001101111100000000000000000010111111111100000000000000000000110001000110010000000000000000000000110101100100000000000000000000000000000001111111111111111111100010110101100000000000000000010000100010010111111111111111111111101100011101111111111111111110111111001011101111111111111111110110111011010100000000000000000001101000110101000000000000000000000000000000100000000000000000000000000000000111111111111111111110100110000011111111111111111111010100010110000000000000000000001000111101111111111111111111111011111011011000111111111111111111101101110100101111111111111111111101111100011100000000000000000000110111100100000000000000000000000000000010001111111111111111111111001101000000000000000000000010111101101110000000000000000000101000001011100000000000000000000101110001101011111111111111111111101001101110000000000000000000010010110011010000000000000000000001000101000100000000000000000000000000000000111111111111111111101100001110011111111111111111111101100101100000000000000000000100110010010011000000000000000000010110110110100000000000000000001100001000001000000000000000000000010001011100000000000000000000000000101111100000000000000000000000000000000011111111111111111111111011110111111111111111111111110101101101001111111111111111111110111110010011111111111111111111111010011000111111111111111111110010010100100000000000000000000000000000000000000000000000000000000000000000
00000000000000000000000000000000000000000000000000000000000000001111111111111111111111111111111011111111111111111111111000110111000000000000000000010000110011010000000000000000000000010101110100000000000000000000000000000000000000000000000000000000000000000000000000000000000000000000000000000000000000000000000000000000111111111111111111101101000100011111111111111111110111100010111000000000000000000000100101111000000000000000000000001111010100000000000000000000000010110100011100000000000000000000000111110101000000000000000000000000000000001111111111111111111011001101001111111111111111111000011101010101000000000000000001001011001010100000000000000000001100110001000111111111111111111111101001000101000000000000000000000001010001100000000000000000000101001101100000000000000000000000000000000000000000000000000000000001001001100000000000000000000000001010011100000000000000000010001010001100111111111111111101001101110101011111111111111111011111101011010100000000000000000010000011011111000000000000000000000000000000000000000000000000000000000000000100000000000000000000010000101001000000000000000000100111000111110000000000000000001110101111110111111111111111111101010111100110000000000000000000111011010000000000000000000000001011000110010111111111111111111111000111010111000000000000000000000000000000110000000000000000010100000011100111111111111111111110001001100001000000000000000000000000111011100000000000000000010101100011101100000000000000000101100000010011000000000000000000010001111011111111111111111111111111110111101000000000000000000000000000000000000000000000000000011101100001011111111111111111111010010011011000000000000000000000110000100011111111111111111111111010100001101111111111111111110100111101011100000000000000000000000011110011000000000000000000000000110100010000000000000000000000000000000000000000000000000000000000000000000000000000000000000100000100101111111111111111111010110001100011111111111111111111111000000100111111111111111111111010011011100000000000000000000000000000000000000000000000000000000000000000
00000000000000000000000000000000000000000000000000000000000000001111111111111111111111111111111011111111111111111111111110101000000000000000000000000110110100100000000000000000000000001100110100000000000000000000000000000000000000000000000000000000000000000000000000000000000000000000000000000000000000000000011110110010000000000000000000100111100000110000000000000000000100011010001000000000000000000001000001111010111111111111111111111110110001111111111111111111110111100110101111111111111111111111111100100010111111111111111111111111111111101111111111111111111111000001000000000000000000000010111100011001000000000000000000100000010000100000000000000000000011011001010100000000000000000000111001110001000000000000000000000100111110111111111111111111111110010111110000000000000000000000000000000011111111111111111111011100011000110000000000000000000001001000010111111111111111111100001011110101111111111111111110011100001101100000000000000000000100010010100100000000000000000101100100101000111111111111111111111111111010110000000000000000000000000000000000000000000000000001111011110110000000000000000000010011011101111111111111111111110010100111001111111111111111111110101000011111111111111111111111000010100011111111111111111111111110111001011100000000000000000010110110001101000000000000000000000000000101110000000000000000000000000110100100000000000000000101010011110010000000000000000001111110110100110000000000000000001010001011100000000000000000000000111000100110000000000000000000101100100101110000000000000000000010000101110100000000000000000000000000000000000000000000000000010000100111100000000000000000000010001110111100000000000000000011100101010100000000000000000000011000101100001111111111111111110011100000101100000000000000000001110110110101000000000000000000000000111010100000000000000000000000000000000011111111111111111111111001111111000000000000000000001101010101110000000000000000000100101001000000000000000000000010110110000000111111111111111111101000111011100000000000000000000000000000000000000000000000000000000000000000
00000000000000000000000000000000000000000000000000000000000000000000000000000000000000000000001011111111111111111111111100111100000000000000000000000010110001100000000000000000000000000011111100000000000000000000000000000000000000000000000000000000000000000000000000000000000000000000000000000000000000000000100110011010000000000000000000111101000000101111111111111111111110010111100100000000000000000010101000100101000000000000000000000010100010111111111111111111111000101111100100000000000000000000000000000010000000000000000000000001111110100000000000000000001010010000011000000000000000000010001100010011000000000000000000010001101011110000000000000000010100000111110100000000000000000001000100000110111111111111111111101001101100011111111111111111111111101010101000000000000000000000000000000001000000000000000000001011000101111111111111111111111011111111010111111111111111111011100111001111111111111111111111111001000111100000000000000000000110001101010000000000000000000011011111111000111111111111111111111111101110000000000000000000000000000000000000000000000000000100111011000100000000000000000000011101000000011111111111111111101000001001010011111111111111111011100111000011000000000000000000010011000100010000000000000000001100101110011100000000000000000001000110111100000000000000000000000000000000010000000000000000001101011110110100000000000000000011010111111100000000000000000000100111110011101111111111111111110101110011010000000000000000000100000101101111000000000000000000011001101100110000000000000000000000101111100100000000000000000000000000000000000000000000000000101111110111000000000000000000010011010010010011111111111111111111001010001101111111111111111111101110001000111111111111111111111100100110110000000000000000000001010110001100000000000000000000000000110011000000000000000000000000000000000011111111111111111111111110010101000000000000000000001010101000010000000000000000001000110110101000000000000000000000011001101110000000000000000000011000110101010000000000000000000000000000000000000000000000000000000000000000
00000000000000000000000000000000000000000000000000000000000000001111111111111111111111111111110011111111111111111111111110110011000000000000000000001000001000010000000000000000000000001110110100000000000000000000000000000000000000000000000000000000000000000000000000000000000000000000000011111111111111111111011010110100111111111111111111000101001001011111111111111111111001111011011000000000000000000000100111001101000000000000000001010010000000010000000000000000010011110101101100000000000000000000000011001101111111111111111111111011110110001111111111111111110010010011010111111111111111111111100011101111111111111111111111111001001101101111111111111111110000011010010011111111111111111111111100100000000000000000000001000111100010000000000000000000000100010010000111111111111111111111111111111110111111111111111111001001111110100000000000000000001100001111110100000000000000000110111111000010111111111111111110010100010101111111111111111111111010101111000000000000000000000000000001000010000000000000000000000000000000100000000000000000000000000000000111111111111111111101111010001110000000000000000001001111100010110000000000000000010010010000000000000000000000000100010001101011000000000000000001101010101010000000000000000000000101000011011111111111111111111100111001110001111111111111111111111111111100111111111111111111111110101101001000000000000000000010001111000101000000000000000000011000010111100000000000000000001111010100110000000000000000000010101111010110111111111111111111110110111001111111111111111111111111011101111100000000000000000000000000000000111111111111111111010110110111111111111111111111110010011100010100000000000000000011000110100011000000000000000000000101101010100000000000000000001001100110101011111111111111111111001110011000111111111111111111111111000011100000000000000000000000000000000011111111111111111111111111011000111111111111111111011000010010011111111111111111111010010101001011111111111111111011011010000110111111111111111111000101010100010000000000000000000000000000000000000000000000000000000000000000
00000000000000000000000000000000000000000000000000000000000000000000000000000000000000000000000011111111111111111111111010001000111111111111111111101111101101111111111111111111111111100100111100000000000000000000000000000000000000000000000000000000000000000000000000000000000000000000000000000000000000000000000001100110000000000000000000000000000010010000000000000000001001100100011011111111111111111110111100000111000000000000000000000101101101010000000000000000001101001001011100000000000000000000000100100111000000000000000000000000101000100000000000000000000111111010100100000000000000000001101011011001000000000000000000010110101110111111111111111111100111110010010000000000000000000010110001001101000000000000000000110001010000110000000000000000000100011100101000000000000000000000000000000000000000000000000000001011000001110000000000000000000111000011011100000000000000000100000000110000111111111111111110100101010011001111111111111111111000001101110000000000000000000010101011000111111111111111111111111111111111010000000000000000000000000000000011111111111111111111011010011011111111111111111111111000001001111111111111111111111000100101100000000000000000000000100101100111000000000000000001101011000000110000000000000000000110101100111111111111111111111111000110101010000000000000000000000000000101110000000000000000000111001101110011111111111111111110011011101010111111111111111110110110101111110000000000000000011100100111011100000000000000000000101110100111000000000000000000001001010011001111111111111111111111111100110100000000000000000000000000000000000000000000000000000010101101011111111111111111111101100010000011111111111111111110010010100001000000000000000000111111101110001111111111111111111101000010001111111111111111111111100010011011000000000000000000000000111011010000000000000000000000000000000000000000000000000000000000111110000000000000000000001110011011001111111111111111111000111101010111111111111111111111000010110001111111111111111111110000001001000000000000000000000000000000000000000000000000000000000000000000
00000000000000000000000000000000000000000000000000000000000000000000000000000000000000000000000011111111111111111111111010101110111111111111111111111110000010001111111111111111111111111011011100000000000000000000000000000000000000000000000000000000000000000000000000000000000000000000000000000000000000000000000001011010000000000000000000000010101100101111111111111111111001110100011011111111111111111110010000101011111111111111111111011101010010101111111111111111111001101011000111111111111111111111111110100000111111111111111111111111111111011111111111111111111101110001100000000000000000000001111001001100000000000000000000100001101110110000000000000000001111111011000000000000000000000001100111001001111111111111111111111011100011111111111111111111111110001000010000000000000000000000000000000000000000000000000000001111000001010000000000000000000010100011100100000000000000000001101001000010111111111111111111011101011010010000000000000000001101111101001111111111111111111111110110111101000000000000000000000000000000010000000000000000000000000000000000000000000000000000000111011100111111111111111111101111101011101111111111111111111000100101011111111111111111111111100011011111111111111111111111000011011011111111111111111111111010110000010100000000000000000010001001110111000000000000000000000000000000011111111111111111111011001010001100000000000000000000100000100000000000000000000000111110110100000000000000000000000010101101011011111111111111111011010010010110111111111111111111011100001001110000000000000000000000100011000100000000000000000000000000000000111111111111111111011110010101110000000000000000000101001101001000000000000000000010001011001111000000000000000000011100100010101111111111111111111100011101110100000000000000000000001110010110000000000000000000000000111010110000000000000000000000000000000011111111111111111111111110101010000000000000000000000111011011100000000000000000000010111110011000000000000000000010111011011110000000000000000000000011100110110000000000000000000000000000000000000000000000000000000000000000
00000000000000000000000000000000000000000000000000000000000000000000000000000000000000000000001000000000000000000000000010111001111111111111111111111001010011111111111111111111111111110111010000000000000000000000000000000000000000000000000000000000000000000000000000000000000000000000000011111111111111111111010111011011111111111111111111010010010011101111111111111111110111101111011000000000000000000000001011000111000000000000000000100010010111100000000000000000000011100100110011111111111111111111111011111101111111111111111111111110101010101111111111111111111011010111110000000000000000000000001000010000000000000000000000101110001001110000000000000000000111011000001000000000000000000001000001110000000000000000000000001011100011001111111111111111111101111101100100000000000000000000000000000001111111111111111111111110110000000000000000000000010001100111111100000000000000000011011101111111000000000000000001011100001011100000000000000000000000111011111011111111111111111110101010111100000000000000000000000000010100100000000000000000000000000000000011111111111111111101100001001111111111111111111111011111000011010000000000000000010110101000001000000000000000000110001111000100111111111111111111111100001111011111111111111111110110101011111011111111111111111110100101110100000000000000000000000000000000011111111111111111101111001010001111111111111111111110010011101000000000000000000000100010111010000000000000000000000011000010011011111111111111111100000111000110111111111111111111010101101001101111111111111111111110101111001000000000000000000000000000000000111111111111111111010001011101110000000000000000000010111110111000000000000000000000101000111010000000000000000000010001001100000000000000000000000001100001010111111111111111111110100001100111111111111111111111111111000111110000000000000000000000000000000000000000000000000000000011110111111111111111111111111000000110000000000000000000000000100001110111111111111111111101111111011011111111111111111111100000111101100000000000000000000000000000000000000000000000000000000000000000
00000000000000000000000000000000000000000000000000000000000000000000000000000000000000000000000011111111111111111111111101101010000000000000000000001101110111110000000000000000000000010010111100000000000000000000000000000000000000000000000000000000000000000000000000000000000000000000000011111111111111111111111001001101111111111111111111110010100010010000000000000000001010110000111111111111111111111111111111011001111111111111111111110100010010101111111111111111111111000100000000000000000000000000000100000101000000000000000000000001101001011111111111111111111110011000010100000000000000000000011010001001000000000000000001101110100111010000000000000000100111010111101100000000000000000000000011110100000000000000000000001101011111111111111111111111111111111101111100000000000000000000000000000000000000000000000000010100111010110000000000000000010110010111001100000000000000000011101010111001111111111111111111110001000101100000000000000000000000111101001011111111111111111110100000001010111111111111111111111111111111011111111111111111111111111111111111111111111111111111100001000110111111111111111111110101111010100000000000000000000101000001100011111111111111111101110101011100111111111111111111111010010101110000000000000000000011011110010011111111111111111111111000100000000000000000000000000000000000010000000000000000000101101110101011111111111111111111011010000101000000000000000000000011110100011111111111111111111111111100001100000000000000000110111010110110000000000000000000011000110001100000000000000000000000011101000000000000000000000000000000000000111111111111111111111100100110110000000000000000010100111011101000000000000000000010111011100000000000000000000000000011111011001111111111111111111110001001000111111111111111111111110001010001000000000000000000000000111000010000000000000000000000000000000000000000000000000000000000100111000000000000000000000010111100010000000000000000000011111101010100000000000000000011101101000010000000000000000000010111111011110000000000000000000000000000000000000000000000000000000000000000
00000000000000000000000000000000000000000000000000000000000000000000000000000000000000000000000000000000000000000000000101011011000000000000000000001001110101100000000000000000000000001101001100000000000000000000000000000000000000000000000000000000000000000000000000000000000000000000000011111111111111111111101010110111111111111111111111000000111000110000000000000000000111100001001011111111111111111101100011101001000000000000000000010100000101010000000000000000001011111000110000000000000000000000000011101111111111111111111111111101011111111111111111111111110001111000001100000000000000000000100011101100000000000000000001011110111110011111111111111111100100001111000011111111111111111010100000111110111111111111111111010001011010000000000000000000000000010011111000000000000000000000000000000000111111111111111111100011101111010000000000000000010101100011111000000000000000000011110110000100111111111111111111101100001100111111111111111111111001011110000111111111111111111110100000011000000000000000000000000000000000000000000000000000000000000000000011111111111111111010111110010010111111111111111111010110100010100000000000000000001100000010111011111111111111111110000110110001000000000000000000110000101100100000000000000000000001100011011011111111111111111101111111111100111111111111111111111111111110111111111111111111111100011010100111111111111111111110001000101001000000000000000001000111100101111111111111111111111110011000111100000000000000000000001101010010111111111111111111111110001110111111111111111111111111101000101100000000000000000000000000000000111111111111111111100001001111111111111111111111111110011110001100000000000000000010011011011001000000000000000000010110111110100000000000000000001001110001101011111111111111111111011110110010111111111111111111111111000110100000000000000000000000000000000011111111111111111111111111000011111111111111111111111010100110100000000000000000000011100111111111111111111111111110000111101001111111111111111111011000111010100000000000000000000000000000000000000000000000000000000000000000
00000000000000000000000000000000000000000000000000000000000000000000000000000000000000000000000000000000000000000000000010100011111111111111111111101011010101101111111111111111111111100011110100000000000000000000000000000000000000000000000000000000000000000000000000000000000000000000000000000000000000000000011000000100000000000000000000001000111110001111111111111111101111000000100011111111111111111011000101100111111111111111111111001010001111111111111111111111111001110101011100000000000000000000000000011001000000000000000000000000000001000000000000000000000011011011110111111111111111111111000010100111000000000000000000001110110011001111111111111111111110111101111111111111111111111111001010011101111111111111111111100000001111001111111111111111111101010011111000000000000000000000000000000000000000000000000000100000110000101111111111111111111011001111011111111111111111111001111101101000000000000000000001100101101011010000000000000000011001101100101000000000000000000001110010000111000000000000000000000000000000110000000000000000000000000000000000000000000000000001111011001010000000000000000000111101110011111111111111111111111010101100101000000000000000000001111101001000111111111111111111110100111111001111111111111111111101110011101000000000000000000000110011010001000000000000000000000000000000101111111111111111110110101000100000000000000000000000011001111000000000000000000000111100000101000000000000000000010011001011011111111111111111111010111101101011111111111111111111010110010101111111111111111111111111010000011000000000000000000000000000000000000000000000000000000100001100111111111111111111110010001000000111111111111111111101101100111101000000000000000000100100101110100000000000000000000011100001001000000000000000000000100110111010111111111111111111111111001010010000000000000000000000000000000000000000000000000000000011101000000000000000000000010010001000010000000000000000000010100000000000000000000000000001001110011000000000000000000000001110000110100000000000000000000000000000000000000000000000000000000000000000
00000000000000000000000000000000000000000000000000000000000000000000000000000000000000000000000111111111111111111111111001110111111111111111111111110111010110001111111111111111111111110111000100000000000000000000000000000000000000000000000000000000000000000000000000000000000000000000000011111111111111111111110010010110111111111111111111111100000001001111111111111111110010010010000111111111111111111101010101101110111111111111111111110110101101000000000000000000001000100000101000000000000000000000000011010111111111111111111111111111000100101111111111111111111100101010000100000000000000000000001001101001000000000000000000000101000111100000000000000000000111001010110100000000000000000010001110100111111111111111111111100001001010110000000000000000000001011101101011111111111111111111111111111111000000000000000000001011011100110000000000000000010001101011000000000000000000000001001101001011000000000000000000101011100001100000000000000000010011110100101000000000000000000000101100011111000000000000000000000000000000110000000000000000000000000000000000000000000000000001101010100001000000000000000001110011101001100000000000000000001001110100100000000000000000000011010000110110000000000000000000110000111111010000000000000000000101100010000111111111111111111110101110001001111111111111111111111111111100010000000000000000001001011001011111111111111111111110111111010111111111111111111110010100011001010000000000000000000101001110101100000000000000000011011000011100000000000000000000000111111001111111111111111111111111110111011100000000000000000000000000000000000000000000000000000100011001000000000000000000000101011110001100000000000000000010011110110010000000000000000000011000101011111111111111111111111101010000011111111111111111111111010010111100000000000000000000000000011111110000000000000000000000000000000000000000000000000000000101000010000000000000000000000011101101010000000000000000000100000111101000000000000000000001001010001000111111111111111111111111001001110000000000000000000000000000000000000000000000000000000000000000
00000000000000000000000000000000000000000000000000000000000000001111111111111111111111111111111000000000000000000000000011111100000000000000000000001010111101000000000000000000000000010000101100000000000000000000000000000000000000000000000000000000000000000000000000000000000000000000000000000000000000000000110011110001000000000000000001100000111010010000000000000000001100111011110000000000000000000001011101110100000000000000000000111100011110111111111111111111101110111110000111111111111111111111111010111101000000000000000000000000000000000000000000000000000111101111100111111111111111111111110001011010111111111111111110110010010000100000000000000000000011110000000011111111111111111101000100000011111111111111111111011000100000011111111111111111111111111111001000000000000000000000000000000000111111111111111111100101110001011111111111111111100000011010010011111111111111111101010001010011000000000000000001000010101010111111111111111111101011000111111011111111111111111100110011101010000000000000000000000000000000001111111111111111111111111111111100000000000000000001110111110000000000000000000000011110010001000000000000000000001110000111011000000000000000000000111010101011000000000000000000010011001111000000000000000000000000000010101100000000000000000010000101010010000000000000000000000000000000010000000000000000001001010011011100000000000000000010111111001010000000000000000001100101110100000000000000000000001101011010000100000000000000000001110011010001000000000000000000111100000011100000000000000000000001010001111000000000000000000000000000000000000000000000000000111110101011100000000000000000000001010001001111111111111111111011011111100110000000000000000000001101101000010000000000000000000010000000101000000000000000000010000001001001111111111111111111111111001111110000000000000000000000000000000011111111111111111111101101110100111111111111111111101110000110110000000000000000000001011110100111111111111111111101110111010001000000000000000000011011010101110000000000000000000000000000000000000000000000000000000000000000
00000000000000000000000000000000000000000000000000000000000000000000000000000000000000000000000011111111111111111111111100111010111111111111111111111111000110011111111111111111111111111111111000000000000000000000000000000000000000000000000000000000000000000000000000000000000000000000000011111111111111111111111010101011000000000000000000011000111010010000000000000000000110011001010100000000000000000100111100001111000000000000000000011110110011000000000000000000000000010000111111111111111111111111111100001010111111111111111111111111110101100000000000000000000101110010011100000000000000000010110111111100111111111111111111001000101011111111111111111111101010110110111100000000000000000001110101111000000000000000000000100100111000000000000000000000000000010111000000000000000000000000000000000000111111111111111111101010010110000000000000000000000101110000010000000000000000000011001101101000000000000000000000101000011001110000000000000000000100111010100100000000000000000010001110101101000000000000000000000000000000010000000000000000000000000000000000000000000000000001101010010010000000000000000000001011011010101111111111111111111011001110101000000000000000000001011011111111000000000000000000101101000010010000000000000000000001100100011111111111111111111111010001000010000000000000000000000000000000110000000000000000000011010011100100000000000000000001011001101010111111111111111111111000001110010000000000000000001010011001110000000000000000000001001001011111111111111111111111110101001010001111111111111111111111111110110100000000000000000000000000000000000000000000000000000011110011111111111111111111111101101100110100000000000000000011000101110000000000000000000000100001111110101111111111111111111011000011110011111111111111111111011110000001000000000000000000000000011100010000000000000000000000000000000011111111111111111111111111111111111111111111111111111011010101001111111111111111110111100100100011111111111111111101001111000011111111111111111111101100001111000000000000000000000000000000000000000000000000000000000000000000
00000000000000000000000000000000000000000000000000000000000000000000000000000000000000000000000111111111111111111111111101100001111111111111111111111110110101000000000000000000000000000001011000000000000000000000000000000000000000000000000000000000000000000000000000000000000000000000000000000000000000000000010111111011000000000000000000011010000100001111111111111111111011101101100000000000000000000100001011110101000000000000000000000100001111100000000000000000000100000001100111111111111111111111111011001100000000000000000000000000000000010000000000000000000010111000110011111111111111111011111110011110000000000000000000110011111010111111111111111111110100111010010100000000000000000010100110001010000000000000000000001100110011111111111111111111111110011000011000000000000000000000000000000010111111111111111111110011000010110000000000000000000010000010111111111111111111111100011000110100111111111111111111001101100100010000000000000000001001001110111000000000000000000100011101100010000000000000000000000000000000010000000000000000000000000000000000000000000000000010011001011010000000000000000000001010101000011111111111111111110001111001111111111111111111111111000100100011111111111111111111101010001111010000000000000000000100011100010100000000000000000001101101110100000000000000000000000000000110000000000000000000000111010001111100000000000000000001011100010010000000000000000001011011111000111111111111111111111100011000100111111111111111111101110001101000111111111111111111110100111011000000000000000000000000000110010100000000000000000000000000000000000000000000000000000101010001000000000000000000000101101101110100000000000000000011011000010100111111111111111111111100001100101111111111111111111001110101101000000000000000000000110101110011000000000000000000000000111100000000000000000000000000000000000011111111111111111111111110010100000000000000000000001101100000001111111111111111111111011010011100000000000000000001100100101100111111111111111111101100100001100000000000000000000000000000000000000000000000000000000000000000
00000000000000000000000000000000000000000000000000000000000000000000000000000000000000000000001100000000000000000000000010111101000000000000000000000011001100101111111111111111111111111110101100000000000000000000000000000000000000000000000000000000000000000000000000000000000000000000000000000000000000000000001100101110111111111111111111111001111100110000000000000000001010010011010100000000000000000001001111010111000000000000000000001010111001111111111111111111111011110000111000000000000000000000000011010110111111111111111111111110101001001111111111111111111111101100111011111111111111111111100001001110111111111111111111110001001110110000000000000000001110100100101011111111111111111100100010001010111111111111111110111101001101011111111111111111111111011010101011111111111111111111111111111110111111111111111111111100110111001111111111111111110100100000110000000000000000000000010110000101000000000000000001011101110000001111111111111111111010110111011111111111111111111100011011111010000000000000000000000000000000000000000000000000000000000000000000000000000000000000111110110010000000000000000001000011001001111111111111111111111011110001010100000000000000000001101111010110000000000000000000000011100101010000000000000000001011000000101011111111111111111111000010110001111111111111111111111111111011110000000000000000001011010000100111111111111111111101100111110010111111111111111111010010010110110000000000000000001011011111010111111111111111111111100110000010000000000000000000011000110001001111111111111111111110101111010100000000000000000000000000000000000000000000000000100010101000000000000000000000001000010010000011111111111111111101011001101100000000000000000000010000011111101111111111111111111001010110100111111111111111111111111000000111111111111111111111111111001011110000000000000000000000000000000000000000000000000000000000010101111111111111111111111111010010110000000000000000000011011011000111111111111111111110111100011000000000000000000000000000010010000000000000000000000000000000000000000000000000000000000000000000
00000000000000000000000000000000000000000000000000000000000000000000000000000000000000000000000000000000000000000000000001000101000000000000000000000011100011010000000000000000000000000010101000000000000000000000000000000000000000000000000000000000000000000000000000000000000000000000000000000000000000000000001101001010000000000000000000100100100011010000000000000000000001010110101000000000000000000011101010100100000000000000000000100010101010110000000000000000000010001000111100000000000000000000000000110010000000000000000000000001100001000000000000000000001011101101101000000000000000000100010101001110111111111111111111101110111001100000000000000000001100101011011100000000000000000011110000000000000000000000000000110010100111100000000000000000000000100000001000000000000000000000000000000001111111111111111111110100111111001111111111111111110111100101011011111111111111111111011111000001000000000000000000011100110001001111111111111111110011101010011111111111111111111110100111111001000000000000000000000000000000110000000000000000000000000000000111111111111111111111101100010110111111111111111111110001111101110000000000000000000001100101001000000000000000000010110111011110000000000000000000000100001011010000000000000000000001101010010000000000000000000000110101001010000000000000000000000000000010100000000000000000001001110110000100000000000000000000100010101001000000000000000000001001001011111111111111111111111110111100101100000000000000000100110111011110000000000000000000010010000100110000000000000000000000011111000000000000000000000000000000000000000000000000000000011000000101010000000000000000010010110001100000000000000000000011101000011110000000000000000001100011011100010000000000000000000111110101100000000000000000000000000100010100000000000000000000000000111101110000000000000000000000000000000011111111111111111111111101000001000000000000000000000001011110000000000000000000000010000101000100000000000000000000001011111010000000000000000000000000100001010000000000000000000000000000000000000000000000000000000000000000
00000000000000000000000000000000000000000000000000000000000000000000000000000000000000000000000011111111111111111111111001101111111111111111111111111001101110101111111111111111111111111100010000000000000000000000000000000000000000000000000000000000000000000000000000000000000000000000000011111111111111111111100110100011111111111111111111110000011101101111111111111111111101011001101100000000000000000010000010100101111111111111111111110111100111100000000000000000000100010111110011111111111111111111111101001011000000000000000000000010010111110000000000000000000101111001011100000000000000000001011000111111000000000000000000100111111111101111111111111111111001001101101000000000000000000100100010100001111111111111111111101110111000101111111111111111111111101110110100000000000000000000000000000001000000000000000000110000111011010000000000000000001111011010011100000000000000000011100001010001111111111111111111100101110100010000000000000000001111010100110000000000000000000011100011110001000000000000000000000000000000110000000000000000000000000000000000000000000000000000110110001001111111111111111111111010101010011111111111111111111100110001110000000000000000000010011100001111000000000000000001011001010111010000000000000000000001101111010111111111111111111111000100000100000000000000000000000000000011111111111111111111111011111101010011111111111111111111010100101000111111111111111111111101100000000000000000000000001110001010000100000000000000000010010000010111111111111111111111011110001110111111111111111111111111110111100100000000000000000000000000000000111111111111111111100000011110011111111111111111111101101101110000000000000000000100110110001001111111111111111111010110101000001111111111111111110111100111110111111111111111111111001000001101000000000000000000000001000010000000000000000000000000000000000000000000000000000000000111100100000000000000000000011000001001111111111111111111111111011100011100000000000000000001110000011001000000000000000000000001100010100000000000000000000000000000000000000000000000000000000000000000
00000000000000000000000000000000000000000000000000000000000000001111111111111111111111111111101100000000000000000000000001111110000000000000000000000010000111111111111111111111111111111111111100000000000000000000000000000000000000000000000000000000000000000000000000000000000000000000000000000000000000000000101101000111000000000000000001001101001000110000000000000000010000011011011100000000000000000101001111011011111111111111111111111010101101011111111111111111110100001100010111111111111111111111111011001001000000000000000000000000000001100000000000000000001010110110101000000000000000000100010000110100000000000000000000111100001100000000000000000000001010110001101011111111111111111111100100110000111111111111111111101100101101101111111111111111111100010110111000000000000000000000000000000010111111111111111111100111101011101111111111111111100011001010110111111111111111111001000110111000000000000000000000100011110000010000000000000000001001111101111000000000000000000000110000010101111111111111111111111111111111000000000000000000000000000000000111111111111111111110000011011111111111111111111110111001001000100000000000000000000001100111100100000000000000000000000010001100111111111111111110101001010011101111111111111111111000011110111000000000000000000100000010000101000000000000000000000000000110011111111111111111111110111101000000000000000000000101011111111111000000000000000010100000110001000000000000000000001001001010111111111111111111111101001111101010111111111111111111111100111110000000000000000000000001110000011100000000000000000000000000000000000000000000000000011111111001100000000000000000010100100001100111111111111111111111011010110011111111111111111111110001100101111111111111111111111010101000001000000000000000000001110001101011000000000000000000000001001001010000000000000000000000000000000011111111111111111111111100001100000000000000000000100000101011110000000000000000001001111100001000000000000000000011011111001100111111111111111111110011010101010000000000000000000000000000000000000000000000000000000000000000
00000000000000000000000000000000000000000000000000000000000000001111111111111111111111111111111100000000000000000000000001101001000000000000000000010010011101100000000000000000000000011000101000000000000000000000000000000000000000000000000000000000000000000000000000000000000000000000000000000000000000000000000011100010111111111111111111111101000011000000000000000000001010011111110100000000000000000011010000110101000000000000000001011011010010000000000000000000001001010011111000000000000000000000000101101110111111111111111111111110001001011111111111111111111010001110111011111111111111111100001100100000111111111111111111110001001011101111111111111111111100000000111011111111111111111000011001110100111111111111111110001011100011110000000000000000000000000000000000000000000000000000000000000000111111111111111111101100111100000000000000000000001001101010110011111111111111111110001111111010000000000000000000000001000100110000000000000000000110000001101111111111111111111111101001001001000000000000000000000000000000000000000000000000000000000000000011111111111111111110101101000000111111111111111111010100011001011111111111111111111101010011010111111111111111111111111110010110000000000000000000011110101101110000000000000000001001011111100011111111111111111111001101010101000000000000000000000000000000000000000000000000000100101101110100000000000000000001010111100001000000000000000000011001110000110000000000000000001100001010011100000000000000000001000000100000000000000000000000011000011001101111111111111111111111110100100100000000000000000000000000000000000000000000000000010111000011110000000000000000000011100110000100000000000000000000010001011101000000000000000000100100001001010000000000000000000101110001101100000000000000000000101010001000111111111111111111111110111011110000000000000000000000000000000000000000000000000000000000000000111111111111111111111011010010110000000000000000000100000101011011111111111111111111110100010101111111111111111111100100011010100000000000000000000000000000000000000000000000000000000000000000
00000000000000000000000000000000000000000000000000000000000000001111111111111111111111111111111100000000000000000000000000000101000000000000000000000110001000100000000000000000000000000011110100000000000000000000000000000000000000000000000000000000000000000000000000000000000000000000000011111111111111111111100101111100111111111111111111110010001011010000000000000000000100101001000000000000000000000101010101010010000000000000000000101101110011110000000000000000000001110000111011111111111111111111111101110100000000000000000000000000001110000000000000000000000100011001010000000000000000000010010001111011111111111111111111101010110110000000000000000000001000110011011000000000000000000001010010101001000000000000000000011101100101101111111111111111111111100011101000000000000000000000000000000001111111111111111111101000101111010000000000000000000000110011010000000000000000000100010101101101000000000000000001001110000100011111111111111111101100010010001011111111111111111101010111100010111111111111111111111111111111110000000000000000000000000000000111111111111111111110000000110000111111111111111110010001001101001111111111111111111111100101110011111111111111111111111111111110000000000000000000001000110100010000000000000000000010100011100011111111111111111110111111100000000000000000000000000000000011010000000000000000000000001111010011111111111111111100111111111111000000000000000000000101010101111111111111111111111011111110001000000000000000000011001110101101111111111111111111111101000111001111111111111111111111000001110000000000000000000000000000000000111111111111111111111100000111100000000000000000000100101101111100000000000000000101010100010001000000000000000001101000011100011111111111111111111011101100110011111111111111111110101011010001111111111111111111111111101100000000000000000000000000000000000000000000000000000000000001000101111111111111111111111101110101111111111111111111111101010101001011111111111111111101001100100011111111111111111111101100011010110000000000000000000000000000000000000000000000000000000000000000
00000000000000000000000000000000000000000000000000000000000000001111111111111111111111111111110011111111111111111111111100010011111111111111111111111111111101001111111111111111111111111111011000000000000000000000000000000000000000000000000000000000000000000000000000000000000000000000000011111111111111111111110011111111111111111111111111111110010101010000000000000000001000011101111000000000000000000000101001100001000000000000000000000011010001100000000000000000000010100101111000000000000000000000000011001111000000000000000000000011001011100000000000000000000100001101010100000000000000000011010010010100000000000000000001000000011110010000000000000000011100111111011100000000000000000010001001011010000000000000000000011110000110010000000000000000000000110000111100000000000000000000000000000010000000000000000000101001101010010000000000000000000111110101010100000000000000000011100100111110111111111111111111000011110101011111111111111111111101110010100100000000000000000000101110101110000000000000000000000000000001001111111111111111111111111111111111111111111111111111111000011000111111111111111111110000011101111111111111111111111011010100101011111111111111111100101000100010000000000000000000010111110011010000000000000000000010110010010000000000000000000000111100111100000000000000000000000000000100010000000000000000000110101001000000000000000000000000111101111001111111111111111111001000001011100000000000000000000110000000001000000000000000000001010010011001000000000000000000011011110100110000000000000000000000101100001100000000000000000000000000000000111111111111111111111100100001110000000000000000011101111011100100000000000000000111001000010101000000000000000000101110000111100000000000000000000100010100011111111111111111111111011111011111000000000000000000000000111011010000000000000000000000000000000000000000000000000000000010110100000000000000000000010111010000110000000000000000000111001010111100000000000000000011101000010100000000000000000000000010011111010000000000000000000000000000000000000000000000000000000000000000
00000000000000000000000000000000000000000000000000000000000000000000000000000000000000000000000000000000000000000000000101001101111111111111111111110111000110011111111111111111111111110110111000000000000000000000000000000000000000000000000000000000000000000000000000000000000000000000000011111111111111111111111010011101111111111111111111101100110100011111111111111111110101111111000111111111111111111011011110111000000000000000000000101010110111010000000000000000000011100110110111111111111111111111111111011110111111111111111111111100010100001111111111111111110100001011101111111111111111111101000100100000000000000000000000111000010000011111111111111111111000011001111100000000000000000001011100111100111111111111111111100011101000010000000000000000000010000000000011111111111111111111111111111111000000000000000000001100110011010000000000000000000111001101100011111111111111111101011001010000000000000000000000000010110101010000000000000000000101010100101100000000000000000000101001010010000000000000000000000000000001010000000000000000000000000000000000000000000000000001100100011111000000000000000010001001011101100000000000000000011001010010010100000000000000000101101110010001000000000000000001001011111111110000000000000000000000011010111011111111111111111101001001111110111111111111111111111111111001100000000000000000000101111001111111111111111111111101000001111010111111111111111111101111011111010000000000000000000101010101110111111111111111111111100000001011111111111111111111101110010011111111111111111111111111010000111100000000000000000000000000000000000000000000000000010001100011011111111111111111101101101100111011111111111111111011100101001011111111111111111111000010001100001111111111111111111111110001100000000000000000000000000011110100111111111111111111111111001001100000000000000000000000000000000000000000000000000000000100001101111111111111111111110110111110010000000000000000000100111111000011111111111111111111101011001011111111111111111111101011110100100000000000000000000000000000000000000000000000000000000000000000
00000000000000000000000000000000000000000000000000000000000000000000000000000000000000000000000011111111111111111111111111110000111111111111111111110101011111111111111111111111111111110011011100000000000000000000000000000000000000000000000000000000000000000000000000000000000000000000000011111111111111111111100001100011111111111111111111011001111100110000000000000000000100101100111011111111111111111100110010010101111111111111111111111010101000100000000000000000000111111101010100000000000000000000000000110110111111111111111111111111010100111111111111111111110111110111110000000000000000000011111001101110000000000000000000100010001001010000000000000000001011010011000000000000000000000011000001001000000000000000000000011011010000010000000000000000000000000000101011111111111111111111111111111111000000000000000000001110001000010000000000000000011010110000010000000000000000000010010110011001111111111111111111111001111110110000000000000000001011100001001111111111111111111110100111110101111111111111111111111111111111100000000000000000000000000000000011111111111111111101001011101000111111111111111111111100110001110000000000000000001000010110010100000000000000000101010000101001000000000000000000000100111111001111111111111111110110110110111111111111111111111111110100010011000000000000000000000000000000111111111111111111110110110001001011111111111111111110100101111100111111111111111111110010110010100000000000000000000001001101101111111111111111111110001000111110111111111111111111011010111011100000000000000000000000001000110100000000000000000000000000000000111111111111111111011011111001010000000000000000000101011100001011111111111111111111011001100100111111111111111111111010001100110000000000000000001110001001110011111111111111111111011110000110111111111111111111111111100100010000000000000000000000000000000000000000000000000000000010000010111111111111111111111100101010010000000000000000000001000100100000000000000000000001001100000111000000000000000000000110010110110000000000000000000000000000000000000000000000000000000000000000
00000000000000000000000000000000000000000000000000000000000000000000000000000000000000000000000000000000000000000000000000000000111111111111111111111001010000110000000000000000000000000000000000000000000000000000000000000000000000000000000000000000000000000000000000000000000000000000000000000000000000000000011000100101111111111111111111110111010010001111111111111111101100100000101011111111111111110111001110100010111111111111111101110101011000111111111111111111101010010010010011111111111111111111111111111010000000000000000000000010101101010000000000000000000000101010010111111111111111111101100001010101000000000000000001011100100011100000000000000000100010110100011111111111111111111110110100011010111111111111111110011000010111001111111111111111111001111011010011111111111111111111111111111111000000000000000001000011110100111111111111111111111100000111010111111111111111111011001001100001000000000000000000000000011001100000000000000000011000101001000111111111111111111111111000100011000000000000000000000000000000000000000000000000000000000000000000000000000000000010100010011010000000000000000000010011100001011111111111111111111100111010111100000000000000000010101100000000111111111111111110111011010000001111111111111111111010000010010100000000000000000000000000001000111111111111111111111111111101011111111111111111110100111110011011111111111111111110100011111001111111111111111111111000111011011111111111111111111010000101001111111111111111111100111110010111111111111111111111100010000110000000000000000000000000011000110000000000000000000000000000000000111111111111111111110110011110010000000000000000000101001111011011111111111111111110110000100001000000000000000000010011100100101111111111111111111100010001101100000000000000000000010011111010000000000000000000000000000000000000000000000000000000000000000000000000000000000000000111011011000000000000000000100111100010010000000000000000001101001001010000000000000000001000111000010101000000000000000001001010001101110000000000000000000000000000000000000000000000000000000000000000
00000000000000000000000000000000000000000000000000000000000000000000000000000000000000000000000011111111111111111111111001010100111111111111111111111010111100100000000000000000000000000000001100000000000000000000000000000000000000000000000000000000000000000000000000000000000000000000000000000000000000000000011001011101000000000000000000110011101001000000000000000000000100100000101100000000000000000011000011001110111111111111111111110101101101101111111111111111111011011010001100000000000000000000000011000000000000000000000000000011101000010000000000000000001110011100101000000000000000000010100010110110111111111111111111110111001110100000000000000000001110111001111100000000000000000100011100100101111111111111111111100011110010100000000000000000000000011110111100000000000000000000000000000001000000000000000000011000101010101111111111111111111010011111011111111111111111111111101111001000111111111111111111001100011100100000000000000000001101011101101000000000000000000010011001100110111111111111111111111111111100000000000000000000000000000000000000000000000000000100011000010010111111111111111111001110001000001111111111111111101010011001100011111111111111111110100011110111000000000000000000100001000010110000000000000000000111010000010000000000000000000000000000000111000000000000000000000000000100110000000000000000001101100000001011111111111111111110001110001111111111111111111111100010000111000000000000000000001001101011110100000000000000000001111100001001000000000000000000010101110101110000000000000000000000000101010100000000000000000000000000000000000000000000000000100001000111100000000000000000010000111011000100000000000000000100100110101001000000000000000000000001011100111111111111111111111001011101110100000000000000000000001101001000000000000000000000000001000000100000000000000000000000000000000000000000000000000000000100001001000000000000000000100011101001001111111111111111111111001001010100000000000000000001111001010000000000000000000000010001111000110000000000000000000000000000000000000000000000000000000000000000
00000000000000000000000000000000000000000000000000000000000000000000000000000000000000000000000100000000000000000000000000000001111111111111111111111111011110110000000000000000000000000000000000000000000000000000000000000000000000000000000000000000000000000000000000000000000000000000000000000000000000000000011001011110000000000000000000101011100100101111111111111111110100000110101100000000000000000001000100101000000000000000000000001101011100111111111111111111101110011011011111111111111111111111111011100101000000000000000000000011110111100000000000000000010011100000101000000000000000000000100111111001111111111111111111111000011111100000000000000000010001001000010100000000000000000000000001110110111111111111111111111110001111111111111111111111111100110110010000000000000000000000000000000011000000000000000000110010001111001111111111111111110011010100101100000000000000000000101100101000000000000000000000100000110100100000000000000000001011001110000100000000000000000010100011110001000000000000000000000000000000001111111111111111111111111111111100000000000000000011110100011010000000000000000000000111101110111111111111111111101101110001101100000000000000000011010001100101000000000000000000111001100111010000000000000000000010001011000100000000000000000001000001010001000000000000000000000000000100000000000000000000000000001000110100000000000000000001100000101011000000000000000000111100011001101111111111111111110110111001010100000000000000000010011100011111111111111111111111111101100000100000000000000000000000001001000100000000000000000000000000000000000000000000000000010000011110100000000000000000000000101010100000000000000000000010110001011110111111111111111111000001111001111111111111111111111010011111011100000000000000000000010000011100000000000000000000000000110101000000000000000000000000000000000000000000000000000000000100101100000000000000000000100011100100010000000000000000000100100100111100000000000000000001101000111111000000000000000000011011111101010000000000000000000000000000000000000000000000000000000000000000
00000000000000000000000000000000000000000000000000000000000000000000000000000000000000000000001000000000000000000000000000000111000000000000000000000011011010010000000000000000000000000100001100000000000000000000000000000000000000000000000000000000000000000000000000000000000000000000000011111111111111111111111001100010000000000000000000010110100011010000000000000000001101111101110100000000000000000011001110000010000000000000000000100110010111110000000000000000001011001100110011111111111111111111111111101010111111111111111111111111000000000000000000000000000001001001100100000000000000000100000111001000000000000000000000100100111010100000000000000000000001111000000100000000000000000100111010001011000000000000000001010011101100000000000000000000000001001010011100000000000000000000000000000000111111111111111111011010111101100000000000000000000111000111001100000000000000000011100111111010000000000000000000100110010010010000000000000000000010001101111111111111111111111110110100011000000000000000000000000000000000110000000000000000000000000000000011111111111111111111100011110001111111111111111111101101011010000000000000000000000011000010011011111111111111111110111111000101000000000000000000101010011101111111111111111111111110110011111100000000000000000000010111001001111111111111111111111111111111000000000000000000000111111110000100000000000000000001001110101000111111111111111111111111000111001111111111111111111011110011000000000000000000000100100101001010000000000000000000011000011100000000000000000000000000110101001000000000000000000000000000000000000000000000000000000110110011000000000000000000001110001111101100000000000000000101000000001011000000000000000001010010100011110000000000000000000111010101000111111111111111111111101010101000000000000000000000000000111100010000000000000000000000000000000011111111111111111111111011010101111111111111111111110000011100100000000000000000000010111001001011111111111111111110011110001110111111111111111111101011000010100000000000000000000000000000000000000000000000000000000000000000
00000000000000000000000000000000000000000000000000000000000000000000000000000000000000000000000011111111111111111111111111111110111111111111111111111000001011001111111111111111111111101011101100000000000000000000000000000000000000000000000000000000000000000000000000000000000000000000000011111111111111111111100010111010111111111111111111011101000101001111111111111111101001000101110111111111111111111110111011110000111111111111111111000011001101001111111111111111111100111111111000000000000000000000000000010101000000000000000000000000000101110000000000000000000111111010101111111111111111111011101001000110000000000000000000110111110111010000000000000000001010010011110100000000000000000001111011000001000000000000000000011000101000101111111111111111111111011100000000000000000000000000000000000011000000000000000000111000111101011111111111111111110011111110001000000000000000000001001111110100000000000000000001000101100001010000000000000000000001010100000011111111111111111111111101111001000000000000000000000000000000000000000000000000000000000000000011111111111111111110101011010000111111111111111110000011000010101111111111111111101010110110011111111111111111111111111101010111111111111111111110111100011010111111111111111111111011110110101100000000000000000000010101100100000000000000000000000000000101111111111111111111110001000001101111111111111111111101011001111010000000000000000000110110110001110000000000000000001110010111111111111111111111110111110010111110111111111111111111001100011100011111111111111111111110000110000000000000000000000000000000000000111111111111111111110001001101000000000000000000001110000100111000000000000000000010111110100001000000000000000000000100000100101111111111111111110000010010100111111111111111111110111101000110000000000000000000000000000000000000000000000000000000000000000000000000000000000000010001101000000000000000000000101011101011110000000000000000001010000011011000000000000000000010001101000111000000000000000000010010000000110000000000000000000000000000000000000000000000000000000000000000
00000000000000000000000000000000000000000000000000000000000000001111111111111111111111111111111100000000000000000000000001000000111111111111111111111110101000010000000000000000000000000010000100000000000000000000000000000000000000000000000000000000000000000000000000000000000000000000000000000000000000000000001011010000111111111111111111110100000001111111111111111111110100010011010111111111111111111100000100000100111111111111111111111000101000101111111111111111110101100001101011111111111111111111111111111001000000000000000000000000001010001111111111111111111111110000111011111111111111111111111110010001000000000000000000000010100011110000000000000000001111011101010011111111111111111101101111001111111111111111111111000011010101011111111111111111111110001111100111111111111111111111111111111111000000000000000000100000101110110000000000000000000000001011100011111111111111111110100101011000000000000000000001011011011010110000000000000000011001100001001100000000000000000000000111011101000000000000000000000000000000000000000000000000000000000000000100000000000000000010010001100101000000000000000001000100110101000000000000000000000010000110100100000000000000000001000110011011000000000000000000100110110011100000000000000000000100011000111111111111111111111111010001010010111111111111111111111111111011100000000000000000000001001011100100000000000000000000011010110111111111111111111111101000001101100000000000000000001000011000111000000000000000000001001111110100111111111111111111101111001001101111111111111111111111101001010000000000000000000000000000000000000000000000000000001110000110011111111111111111111100100100000011111111111111111101011100111110111111111111111111100010110000001111111111111111110111000101010000000000000000000000000010101111111111111111111111111111010001010000000000000000000000000000000000000000000000000000000100100000000000000000000000001001111010000000000000000000000001101100101000000000000000000001101100110100000000000000000000010101010010110000000000000000000000000000000000000000000000000000000000000000
00000000000000000000000000000000000000000000000000000000000000000000000000000000000000000000000000000000000000000000000010010100000000000000000000010010000000110000000000000000000000011111011100000000000000000000000000000000000000000000000000000000000000000000000000000000000000000000000000000000000000000000001011000110111111111111111111110110110000011111111111111111111110111110001000000000000000000001101101101110000000000000000000100011000000111111111111111111111111111000010011111111111111111111111011001001111111111111111111111110011101001111111111111111111001100011001111111111111111111110010010001101000000000000000000110111101000001111111111111111110011100100001111111111111111111110001100111011111111111111111111101101111000101111111111111111111110110001001100000000000000000000000000000000111111111111111111101110011110011111111111111111111110001100101000000000000000000011010101110010111111111111111111110110111001110000000000000000001100010001011111111111111111111111111111011000000000000000000000000000000000000000000000000000000000000000000011111111111111111101010100100001000000000000000000001111101010010000000000000000010010001000110011111111111111111110101001001110000000000000000000001111001000011111111111111111110100101011000111111111111111111111100001001110111111111111111111111111111111001111111111111111101111110101001100000000000000000100001111110110000000000000000010011001010011001111111111111111111111010111110100000000000000000001010000111110000000000000000000011100100111010000000000000000000000101011010000000000000000000000000000000000111111111111111111100110101110111111111111111111101110110100111000000000000000000001010001010010111111111111111111100010011111110000000000000000000001000010011100000000000000000000110111110001111111111111111111111110111011000000000000000000000000000000000011111111111111111111110111011101111111111111111111011111110111011111111111111111111100011011001000000000000000000000101010100111111111111111111111110100001111010000000000000000000000000000000000000000000000000000000000000000
