000001000000010011111111111111000000001000000000000001011111101000000101000001001111101011111110000000100000010100000100111111101111110011111110111111101111101000000000111110100000000111111110000001010000010011111100000001100000000111111100
000000000000010111111010000001001111101000000100000001010000001011111100000001101111110000000101000000101111110111111010111111101111110100000100000000001111111011111010000001000000011000000000111110101111111100000010111110101111110111111011
000001100000000111111100000001000000000011111010111111011111111000000010111110101111111100000110111111010000000000000100000000001111111111111110000000100000010111111011000000101111110000000110000000010000001011111010111111101111111111111100
000000011111111011111011111110100000011000000101111111010000000111111101000000010000001011111100111111001111111111111011000000110000001111111010000000010000001000000010111111011111110000000100111110100000001011111010111111011111110100000011
111111000000010100000100000001011111111011111100111111101111101000000000111111100000000011111110111111111111111011111100111111101111101000000011111110110000010011111011111110100000011011111010111111100000010011111010000001000000011011111111
111110111111101000000001000000110000000100000010111110111111101000000000000001010000001000000011111110101111110100000101000000110000000111111100000000010000001100000100000000001111111000000110111110111111101100000100111111011111101111111110
000001100000001000000100111111100000001000000010000000011111101111111110111110111111111111111110111111101111111111111110111110100000000011111010111111100000010000000101000000110000010100000100111110100000011011111110111111111111111000000001
000000111111101000000000111111000000011000000101000000000000010111111010111111001111101111111110111110101111101011111100000001100000011000000100000001011111110000000101111111100000000100000010111110101111111000000010000000100000000000000100
111110101111101000000010111110101111101000000010000001000000010111111010000001101111101000000100000000001111110111111111111110111111111000000100111111100000000111111010111111001111111000000011000000010000010111111100111111111111111000000010
000000101111110100000100000001000000000011111110111110110000001100000101000001000000010000000010000000100000001000000101000000101111101011111101000001101111111100000000000000001111111011111110000001100000000111111100111110110000000111111011
