0000000000000000000000000000000000000000001011010100001100101110
0000000000000000000000000000000001001110011100011000101100000000
0000000000000000000000000000000000110010001110000000000010000000
0000000000000000000000000000000000101010110100100001001110000000
0000000000000000000000000000000000101001111001011010011101000000
0000000000000000000000000000000000010000111000001001011111000000
1111111111111111111111111111111111111011101101010001111000101000
1111111111111111111111111111111111110110011101110000110111000000
0000000000000000000000000000000000000000001000001101011011011100
0000000000000000000000000000000000000001000111000000000011101100
0000000000000000000000000000000000101000011101100001010010000000
0000000000000000000000000000000000000011100101110011111111001100
0000000000000000000000000000000000001010111010011101111011000000
0000000000000000000000000000000001010001000011010000001110000000
0000000000000000000000000000000000100010110100110010011000000000
1111111111111111111111111111111111100001101100110000100010100000
0000000000000000000000000000000000011000001101110100011000100000
1111111111111111111111111111111111110001100110001111011000100000
0000000000000000000000000000000000100101100100100110001010000000
0000000000000000000000000000000000011001101111101110011011100000
0000000000000000000000000000000000010101011000110111100110100000
0000000000000000000000000000000000001100001110100011001100100000
0000000000000000000000000000000000111001110011000101011111000000
0000000000000000000000000000000000001010100110001010011011100000
0000000000000000000000000000000001000101111011011101111010000000
1111111111111111111111111111111111110111111100011101011111010000
0000000000000000000000000000000000000010100111101111000011011100
0000000000000000000000000000000001111111100111000100111110000000
0000000000000000000000000000000000001010101011110101111110000000
0000000000000000000000000000000000110101101101100100110100000000
0000000000000000000000000000000000001011101110101000001110000000
0000000000000000000000000000000000100110100101110101111110000000
0000000000000000000000000000000000111110110011010010010000000000
0000000000000000000000000000000000100001101011100010011000000000
1111111111111111111111111111111111110100110101011111011000100000
0000000000000000000000000000000000101011111001110110100000000000
0000000000000000000000000000000000001101010110011101000111010000
0000000000000000000000000000000000101101111110011011101111000000
1111111111111111111111111111111111100110001000001101101000100000
0000000000000000000000000000000000011101001011110010100100100000
0000000000000000000000000000000000000111110011110111101000110000
0000000000000000000000000000000000100101111110000010000010000000
1111111111111111111111111111111111111001101011111101110101101000
0000000000000000000000000000000000011101111100111011100101100000
1111111111111111111111111111111111110111010110001011101011000000
0000000000000000000000000000000001001111010101111010111010000000
0000000000000000000000000000000000100110011100001000110101000000
0000000000000000000000000000000000010001010110101011000010000000
1111111111111111111111111111111111100110000000011011111100100000
0000000000000000000000000000000001010111110001110110011100000000
