0000000000000000000000000000000000111101110100000010010111000000
1111111111111111111111111111111111110100001100111110000110110000
0000000000000000000000000000000000101111001011010010100110000000
0000000000000000000000000000000000100101101110010001000110000000
0000000000000000000000000000000000111111110011001010011010000000
0000000000000000000000000000000000000010010111101101111010100000
0000000000000000000000000000000001000101000100101000101100000000
1111111111111111111111111111111111110101100110100000000100100000
0000000000000000000000000000000000000011000000111100111000101100
1111111111111111111111111111111111111110100011100011000010100100
1111111111111111111111111111111111010100011110000001100101000000
0000000000000000000000000000000000100101100111001100111110000000
1111111111111111111111111111111111110011000001101111111101010000
0000000000000000000000000000000000101011001010111110110100000000
0000000000000000000000000000000000101101011010101000001101000000
0000000000000000000000000000000001000110000110110000011110000000
0000000000000000000000000000000000110101001111110110000100000000
1111111111111111111111111111111111111100100000100001111010101100
1111111111111111111111111111111111101000000011000001001001100000
0000000000000000000000000000000000100001011101000111100111000000
0000000000000000000000000000000000001000011101010001010111010000
1111111111111111111111111111111111111111111110111101111000111110
0000000000000000000000000000000000011011100000000111011101000000
0000000000000000000000000000000000000111010100010110000110111000
0000000000000000000000000000000000001011111010110001100110110000
0000000000000000000000000000000000110000010011101100000000000000
0000000000000000000000000000000000001110101110001010100000000000
1111111111111111111111111111111111011011110110111011110011000000
0000000000000000000000000000000000010001101000100111111110000000
0000000000000000000000000000000000001010101100111000010111000000
