0000000000000000011000001101111000000000000000000011110101010001111111111111111111001110110011100000000000000000011001000010011111111111111111111100101110010011000000000000000000000010110011100000000000000000001010001111010111111111111111111110110100010001111111111111111110001010101110101111111111111111101010100101011000000000000000000010100011011001111111111111111111010011101001110000000000000000010000101111000100000000000000000011001000001100111111111111111111110011001101011111111111111111110000111110100000000000000000000000011010110010000000000000000000010010111101000000000000000000010100011101100100000000000000000001001111000100000000000000000001000110100100111111111111111111110110100110100100000000000000000101100110110110111111111111111111111001010000011111111111111111110111001011110000000000000000000011000011001000111111111111111111110100110010000000000000000000001101010011110100000000000000000000101111110100111111111111111111010110100101110000000000000000000000100001101100000000000000000010010110001100000000000000000000011100101010100000000000000000000001110001111000000000000000000010010000000101000000000000000001001010001001010000000000000000000101101001100000000000000000000010101101010011000000000000000001011010000101011111111111111111110000111111101000000000000000000001000111111100000000000000000000010110100110010000000000000000001001100001100000000000000000000001000011001100000000000000000000000111000111100000000000000000011110101111111000000000000000000010101000110100111111111111111111011011011010001111111111111111110011100001111011111111111111111101100000001000
0000000000000000000000000000000000000000000000000000000000000000000000000000000000000000000000000000000000000000000000000000000000000000000000000000000000000000000000000000000000000000000000000000000000000000000000000000000000000000000000000000000000000000000000000000000000000000000000000000000000000000000000000000000000000000000000000000000000000000000000000000000000000000000000000000000000000000000000000000000000000000000000000000000000000000000000000000000000000000000000000000000000000000000000000000000000000000000000000000000000000000000000000000000000000000000000000000000000000000000000000000000000000000000000000000000000000000000000000000000000000000000000000000000000000000000000000000000000000000000000000000000000000000000000000000000000000000000000000000000000000000000000000000000000000000000000000000000000000000000000000000000000000000000000000000000000000000000000000000000000000000000000000000000000000000000000000000000000000000000000000000000000000000000000000000000000000000000000000000000000000000000000000000000000000000000000000000000000000000000000000000000000000000000000000000000000000000000000000000000000000000000000000000000000000000000000000000000000000000000000000000000000000000000000000000000000000000000000000000000000000000000000000000000000000000000000000000000000000000000000000000000000000000000000000000000000000000000000000000000000000000000000000000000000000000000000000000000000000000000000000000000000000000000000000000000000000000000000000000000000000000000000000000000000000000000000000000000000000000000000000000000000000000000000000000000000000000
1111111111111111111111000010111000000000000000000000101100010001000000000000000001001010000010001111111111111111110111110110110000000000000000000110000111111001000000000000000000010011000010000000000000000000000101011100011000000000000000000010101110110100000000000000000000100110111100000000000000000000000010101100000100000000000000000110100100100011111111111111111111110101001000101111111111111111110111110100000000000000000000000010101110000111000000000000000000111110100001110000000000000000001110010100101111111111111111111100011000111101111111111111111111101110101000010000000000000000000000010000111100000000000000000001010010000000111111111111111111110001110000100000000000000000000101011101101100000000000000000001011001110011000000000000000000010000110101100000000000000000001111010101000111111111111111111110111111111010000000000000000000111010001011110000000000000000000101110101111111111111111111111011101110101101000000000000000001101011001011001111111111111111111010000100000000000000000000000000110011010110111111111111111111111010111000110000000000000000001101001001000111111111111111111011111010110110000000000000000000010001110101110000000000000000001000111000100000000000000000000000001111011011111111111111111111001010111100111111111111111111110101010111010000000000000000000000111001011100111111111111111111100100100110011111111111111111101001100000100111111111111111111111010011001001000000000000000000100100000110110000000000000000000101000101110111111111111111111111010101000101000000000000000001000010100111001111111111111111111000100010101100000000000000000110100100100011
0000000000000000001110100100110000000000000000000001000010110100111111111111111111001001100100101111111111111111110001000111000100000000000000000111111101110011000000000000000000010010101011000000000000000000010110001011101111111111111111111110101011101110000000000000000000011001010110000000000000000000010100011100111100000000000000000000010100111110111111111111111110110000000000001111111111111111111000100101000000000000000000001001000101110010111111111111111110111100010011010000000000000000001111111100001011111111111111111100000101101100000000000000000000101011101011011111111111111111111101101111010111111111111111111100001111000101111111111111111110011011101001110000000000000000011011101011110000000000000000000011110110101001000000000000000000010000111111000000000000000000010100111111001000000000000000000010001001110100000000000000000010000001101100100000000000000000000001100100110111111111111111111011101001000110111111111111111111011000111100011111111111111111111111010010000111111111111111111111100101100100000000000000000000101000100100100000000000000000001010001000111011111111111111111101001100101000111111111111111110110000010100110000000000000000001010000110110100000000000000000101101010010000111111111111111111011100101001011111111111111111111000110000011000000000000000000010110001011001111111111111111110100000101010011111111111111111100100111010110011111111111111111011011010111000000000000000000000000001001111110000000000000000001111010111111111111111111111111100111110110100000000000000000000010011010111001111111111111111111010100010011000000000000000000111011010100000
1111111111111111110010100001000111111111111111111010010111111000000000000000000001001011011000101111111111111111111111011111011100000000000000000001100001110010000000000000000000110000111101001111111111111111111111000011100011111111111111111101110000110100111111111111111110101101010100101111111111111111111010111000100100000000000000000010011110011010000000000000000001011000110110000000000000000000000000001110011000000000000000000011110110000101000000000000000001111010100010101111111111111111110100100100001100000000000000000100001100110111111111111111111111101100111001100000000000000000001011000001000100000000000000000011000000111111000000000000000001011101100011011111111111111111111001011111011000000000000000000001111110010110111111111111111111011001111001010000000000000000001010000111011111111111111111111111101011011011111111111111111110111101101000010000000000000000000111110110000011111111111111111011111101011000000000000000000010001011101110100000000000000000001001011110001000000000000000000101011000011101000000000000000001000101001110000000000000000000001100100000001111111111111111111100011101001000000000000000000001100110100011100000000000000000000110111101110100000000000000000011110111111110111111111111111111110101100101011111111111111111111001011100110111111111111111111001110111101100111111111111111111011000101101100000000000000000001010010001011000000000000000000101100101111110000000000000000000100000100010000000000000000000000010111100111011111111111111111111000111001111000000000000000000101100001000100000000000000000000101101011100100000000000000000010001100111011
1111111111111111101000100010101100000000000000000011011101101111111111111111111111011100101000101111111111111111111100111000100011111111111111111110111010100011111111111111111110111111001011100000000000000000001101101100100000000000000000000110100010110100000000000000000000011100110100111111111111111111110100010000100100000000000000000011100011001110111111111111111110111010010010111111111111111111111111110010000011111111111111111010111000100000000000000000000000011001010110010000000000000000000011101111111000000000000000000011011100001010111111111111111111010100111111011111111111111111011111000110100111111111111111111111001011011101111111111111111111111011101110111111111111111111101010100011001111111111111111111101001011001100000000000000000000001000100001000000000000000000010001111010000000000000000000000011001000001100111111111111111110110011000010110000000000000000001100101011000111111111111111111111101011100010000000000000000000010111011010100000000000000000000110010001110000000000000000000001001011001011000000000000000000001110000100100000000000000000001001001110010100000000000000000010011010011001000000000000000000111110001010101111111111111111101000011010110100000000000000000001101100100110000000000000000000110010110001001111111111111111111011001100010111111111111111111111011111100110000000000000000000110100001110000000000000000000001001111111001100000000000000000100111000111100000000000000000000111100010110010000000000000000010111000101100000000000000000000010011111100101111111111111111111011100010011111111111111111111110111101001111011111111111111111111101001010101
0000000000000000000111000111110100000000000000000011110010101010000000000000000000010011011110001111111111111111111011100111100000000000000000000010100010011011000000000000000000011111011110000000000000000000001000111000001011111111111111111110010100000111000000000000000001010111100101000000000000000000001110110110111011111111111111111111010010101100111111111111111111010010101110011111111111111111110100110010010000000000000000000100011011100001000000000000000000111111110101101111111111111111111001100111001100000000000000000111000001001010111111111111111111000000101100011111111111111111111101100010111011111111111111111000111111011011111111111111111111100110111001110000000000000000010100001110010100000000000000000110111011110111111111111111111110111001101010110000000000000000010000111111101011111111111111111011011100111111000000000000000000000011100110100000000000000000010100100001001100000000000000000110111010010101000000000000000000100101101011000000000000000000001100100111100011111111111111111101010000111010000000000000000001011101100011000000000000000000001101101100111011111111111111111110100011101110111111111111111110010101111111010000000000000000001100101100100000000000000000000001001000001011111111111111111111000011100110010000000000000000011010100111100111111111111111111111100001100101111111111111111110100001101000011111111111111111111001110011011011111111111111111111010110111110000000000000000000001001011101111111111111111111111101100110011000000000000000000100001010000001111111111111111111011010001011001111111111111111111000111011101000000000000000000100011111101011
1111111111111111110000000101101011111111111111111011110110100010000000000000000001000111110111011111111111111111110101001001101100000000000000000110101100010011000000000000000000101101101101101111111111111111110011101110101100000000000000000001011111010111111111111111111111110111111101101111111111111111111011110100111000000000000000000010000011010001000000000000000010010011010010101111111111111111111010011111100111111111111111111101100000011001000000000000000000000110110110010000000000000000001101011111000111111111111111111000011001000101000000000000000000011000111100100000000000000000010010111001100000000000000000000110000110100001000000000000000001011000110110100000000000000000000010100100110111111111111111111010000110000100000000000000000000000111001001111111111111111111101111101010100100000000000000000100101010001111000000000000000000101100010101010000000000000000001101100111101111111111111111111111111001100100000000000000000000100111100101101111111111111111111101110100101000000000000000000001011110110110000000000000000000010011001101100000000000000000000001000010010111111111111111111111100010110001000000000000000000110001001101100000000000000000010010000100110011111111111111111010010010001100111111111111111111101001011000000000000000000000000000101100100100000000000000000000000111011101000000000000000001110011000010011111111111111111111110110011011000000000000000000001011001111101111111111111111111100101001000111111111111111111011111000101101000000000000000000101010001111101000000000000000001011000110111010000000000000000001110001110101000000000000000000011111100111111
1111111111111111111101010011111111111111111111111111111010110011111111111111111111111100001011110000000000000000000110011101011011111111111111111110011111100001000000000000000000010101111010000000000000000000000001110110111111111111111111111110111001010010111111111111111111001100100110001111111111111111111101001000000111111111111111111111001111011111000000000000000000111101110011000000000000000000001110000001100111111111111111111100101000100001000000000000000000001001100100001111111111111111110101101011101100000000000000000000011011101101000000000000000000001011000011010000000000000000001001110011000100000000000000000100101100111001000000000000000001000011101111011111111111111111110111101011110000000000000000000000110101101100000000000000000000000010001001001111111111111111111001110101001000000000000000000001110111110011111111111111111111100000001110110000000000000000000000000101010000000000000000000000110101110001000000000000000000001001101010010000000000000000001000001100011100000000000000000100010100101101111111111111111111101101100001110000000000000000001011001111111100000000000000000010000010000010000000000000000000110011010010011111111111111111111101101011010100000000000000000000111101101101000000000000000000110000000001011111111111111111111011001111011011111111111111111110111010010111000000000000000000010000010111000000000000000000010000011111010000000000000000000010101101110100000000000000000000001000010111111111111111111111111101101111101000000000000000000000001010001110000000000000000000000100110000100000000000000000000000100100010111111111111111111011110100001111
0000000000000000100010010100010000000000000000000001000101100000111111111111111111001111101010100000000000000000001100110101100100000000000000000000101110000100111111111111111111100100010110100000000000000000001000111001110011111111111111111110010010010011111111111111111111100000011010101111111111111111111011001100111011111111111111111111111100111010111111111111111111010100001110010000000000000000000110111111011000000000000000000000010111111100111111111111111111000001110110110000000000000000000011101110101111111111111111111110011001001010111111111111111111111100110010100000000000000000011001100111101011111111111111111110110011110110111111111111111111001101010100000000000000000000000101000100001100000000000000000011011100011010000000000000000000001100110001010000000000000000000110011001010100000000000000000100011111010010000000000000000001000010011101011111111111111111110010010101000011111111111111111111100010110011111111111111111111000011110100101111111111111111110110101101011111111111111111111100110111001000111111111111111111110101010010110000000000000000001001110110001100000000000000000000000011100001111111111111111111001010101110010000000000000000000101100000011000000000000000000000101110001101000000000000000000010101110001110000000000000000000000111110001100000000000000000001001011100101000000000000000001010010100000100000000000000000000001101001010111111111111111111110100001110010111111111111111111111000110100001111111111111111111111001110111011111111111111111110001011110111111111111111111111010010000110010000000000000000000101110011010011111111111111111110011001101001
0000000000000000010000100100000011111111111111111001110100100000111111111111111111100111100000101111111111111111111000101001001000000000000000000011000101001110000000000000000000011001001000000000000000000000011101000111011100000000000000000011100110001001000000000000000000001001101010110000000000000000000101110011101100000000000000000010111101100100111111111111111111110111100110101111111111111111111101001010000111111111111111111001111011111111000000000000000000010100011000100000000000000000001111101010110100000000000000000101110100001110111111111111111111111101101111011111111111111111111111001110100111111111111111111110101001011100111111111111111111010000110110101111111111111111111110101000000111111111111111111100000100111000111111111111111111011000111001010000000000000000000101011011001100000000000000000110000110110010000000000000000000001000011110111111111111111111100000101111000000000000000000000001100011011110000000000000000001000000011000010000000000000000000011011011100011111111111111111101011111011010111111111111111111101110011011010000000000000000010100001100101111111111111111111111111100000100000000000000000000010111010101100000000000000000001110101101010100000000000000000100101011000100000000000000000001000011101001111111111111111111110001001111011111111111111111111111101100000110111111111111111110111001100101101111111111111111111100110011010000000000000000000001111110101010000000000000000001011000000011011111111111111111101011000111110000000000000000000000111110000001000000000000000000010111100111000000000000000000010011100110001100000000000000000000111001011010
0000000000000000001001000110100100000000000000000101101111100110111111111111111111011001010101110000000000000000011000011010110011111111111111111100011010101101111111111111111111011011001110000000000000000000000000011000001000000000000000000001001001111101000000000000000000011011011111101111111111111111111101111001000000000000000000000000110100011011111111111111111110101011001010000000000000000000000011001011101011111111111111111100101011010001111111111111111110110000111000100000000000000000001101001001000111111111111111111101101000000110111111111111111111101111001111101111111111111111101010101111011011111111111111111110101011111001111111111111111110110111111011101111111111111111110011100001110011111111111111111111001110110110000000000000000000101001111000100000000000000000011010100000000000000000000000000010100110001000000000000000000000001001110110110000000000000000010111001000011000000000000000000001011001101101111111111111111110101010010111101111111111111111110100000101010011111111111111111110111001111000111111111111111111110000111101110000000000000000000111101011000000000000000000000011100011100100000000000000000000110010011110011111111111111111110100000100110111111111111111111111010111011010000000000000000000001001001101010000000000000000000110100100101000000000000000001000010100101001000000000000000001111110110100100000000000000000000100000001001100000000000000000010010010101100111111111111111111110100100100000000000000000000011001010111111100000000000000000001110000010000111111111111111111100010100011011111111111111111111000101110110111111111111111111110111001110110
1111111111111111011111111100101111111111111111111111010110001001111111111111111111101000011000011111111111111111110110001001100000000000000000000000000110010010000000000000000000101011110101000000000000000000001001011111110000000000000000000011010110011100000000000000000000000100101000010000000000000000001010001010101011111111111111111100101000110111000000000000000000100110111101110000000000000000001011001110111011111111111111111110011110010000111111111111111111101000110111101111111111111111110111011110111011111111111111111111111001001110000000000000000000011000110101011111111111111111110110100000001000000000000000000011001011011011000000000000000000010001001101100000000000000000001010100100011100000000000000000010111000101110111111111111111111110000110011000000000000000000001100010111001111111111111111111101101100010010000000000000000000011110011110101111111111111111111110010001111000000000000000000010000001101110111111111111111111101101100100100000000000000000001011100010010100000000000000000100111111110101111111111111111110011001000000101111111111111111110110010000111100000000000000000101111010010100000000000000000000001011100010011111111111111111101000010100011011111111111111111111100111110000000000000000000000011100010110101111111111111111111101001001001011111111111111111101101010111001111111111111111110110100001111010000000000000000000110010100110100000000000000000010000101010100000000000000000000011001000101011111111111111111111100011101010111111111111111111100001011101001000000000000000001100010110110000000000000000000000001100000101111111111111111111100010110010101
1111111111111111101011011111101000000000000000000011011101100101000000000000000001011111011001101111111111111111111010101101110000000000000000000001000111110110111111111111111111000001011000111111111111111111110011100110000000000000000000000100010001001100111111111111111111011010010011100000000000000000000010110111000100000000000000000010111101100100000000000000000000011100101110100000000000000000000110110110011011111111111111111011111101000111000000000000000000111111100110100000000000000000000000101101110111111111111111111011110011001001000000000000000001000110101001001111111111111111110011010011110000000000000000000111010101110101111111111111111111111111011100011111111111111111101011010011000100000000000000000010100010010100000000000000000001011000010011100000000000000000001101100110111111111111111111111110001111111100111111111111111111110111000101000000000000000000010001001100001011111111111111111010100110111001000000000000000001100010010001000000000000000000000011001100011000000000000000000101101000101110111111111111111110111011011001000000000000000000000011111001110011111111111111111101101000110010000000000000000010001110101100101111111111111111110000110111100000000000000000000011001011011011000000000000000000000000101011011111111111111111100000001111010111111111111111111110000000100111000000000000000000011010110001001111111111111111111000011001111000000000000000000001111111110010000000000000000000010011110100100000000000000000010100001011111111111111111111111110101111111000000000000000000000010001101100110000000000000000000100101010110000000000000000000100000001000100
1111111111111111101111000000001000000000000000000010010010110011000000000000000000011000011010111111111111111111110111011000001100000000000000000010111111111101000000000000000000101001110111100000000000000000000110100101011000000000000000000000010101111101000000000000000001011001111100101111111111111111111101000011011000000000000000000001011110110111111111111111111111101100111111111111111111111111111010011100110100000000000000000010000001110010000000000000000000111111111110101111111111111111111001001100000000000000000000000101010000101001111111111111111111100100011110111111111111111111101001001001011011111111111111111100011000111011111111111111111111100011111011110000000000000000010010100100000000000000000000000100010101010110111111111111111111011001101101110000000000000000001100111110110011111111111111111011001111110011111111111111111111010100001010010000000000000000001000111011001111111111111111111111000010011011000000000000000001000110100101100000000000000000010001101100000000000000000000000000100110111100000000000000000000100110011011010000000000000000001101101100001100000000000000000010010110011101111111111111111111100010110111011111111111111111111010101011010100000000000000000101100001010000111111111111111110110101101110100000000000000000001010111010011100000000000000000010001100111010111111111111111110011110100000011111111111111111110110010101000100000000000000000001000010000001000000000000000000010111011111010000000000000000000110010000101111111111111111111110111001011110000000000000000000001111000010110000000000000000000101101000110100000000000000000100111010101010
0000000000000000011011110101100000000000000000000110111101100110111111111111111111110110111010000000000000000000011011100011010111111111111111111100001010000000111111111111111111011101010000110000000000000000001001110100101011111111111111111101001111010010000000000000000000010101100010001111111111111111111000111101011100000000000000000000111101000100111111111111111111010000001000100000000000000000000001101101100100000000000000000010000001000110111111111111111111110011101101011111111111111111110101101011000100000000000000000011110111011000111111111111111111001001001011000000000000000000001001101000011111111111111111111010110101001010000000000000000000100100101011001111111111111111111011001010010000000000000000000100001111001001111111111111111111110100000011000000000000000000010000000001010100000000000000000011000100100111000000000000000000000000001110010000000000000000011110000101000000000000000000000101011110101111111111111111111111001101110100100000000000000000001000111100110011111111111111111101100101001011000000000000000000110000110011100000000000000000000011101000100111111111111111111110010010101010111111111111111111001011011000011111111111111111111101110001011011111111111111111111010110000000111111111111111111111010010001000000000000000000011010001000000100000000000000000001011100011001000000000000000001010110011110010000000000000000001011100011001000000000000000000000110001110111000000000000000000100010110010010000000000000000011010011011100100000000000000000011110010010010111111111111111110110010100101110000000000000000001010000011011100000000000000000011000110111101
1111111111111111101110011011001011111111111111111110011010111111000000000000000000111110110110111111111111111111111001111111010000000000000000000011001110111000111111111111111111101001101011001111111111111111111101001101011100000000000000000100100111100000000000000000000000000010001001001111111111111111101000010011010100000000000000001001011010010000111111111111111111111011010111011111111111111111110000100001010111111111111111111101000100011111000000000000000001011000110110000000000000000000000110101100111100000000000000000000101100000001111111111111111111010110000000101111111111111111101011010110010111111111111111111100100011011101000000000000000000000100100000011111111111111111101010110000000111111111111111111001100101111001000000000000000000100010010111010000000000000000010001101010001000000000000000000011010011100011111111111111111110111010111001110000000000000000011011110001100100000000000000000001011100110101000000000000000001011011100111010000000000000000000000110010111111111111111111111111100111000000000000000000000001100000001001000000000000000000010000010011111111111111111111111100101100000000000000000000000010001010010000001111111111111111111010001000000000000000000000000010111011111000111111111111111111010000101001010000000000000000000010001000001100000000000000000001011010000001000000000000000010000000011000111111111111111111111001100010001000000000000000000100111110111100000000000000000000010101100010000000000000000000000110111001011100000000000000000010111000000000000000000000000000000010111000010000000000000000001000100101001100000000000000000110000111010111
0000000000000000000101101011111100000000000000000010001101000101111111111111111111010010001000010000000000000000000110110010010100000000000000000000111111010001111111111111111111101111010101110000000000000000000101101101011000000000000000000011010001110011000000000000000001110110101010100000000000000000010111101011011011111111111111111100101000001000111111111111111111111100010001110000000000000000000001011101011000000000000000000000111010101001111111111111111110101100011100000000000000000000001000000101001011111111111111111101100110111010000000000000000000101111110110011111111111111111111000101011001000000000000000000000001011100101111111111111111111001000001100100000000000000000000011101101110111111111111111111101010111010100000000000000000000100010110100000000000000000000010011001111101000000000000000000101010010111000000000000000000000111111011010111111111111111111111011001100000100000000000000000011100011111110111111111111111110001011000001001111111111111111111011111010000111111111111111111111100000101011111111111111111111011001001000011111111111111111111000010101101000000000000000000010101100000000111111111111111111001000010011001111111111111111110110000101001111111111111111111111011010000111000000000000000001000010110101000000000000000000000000000001100100000000000000000101100001100000000000000000000000110111101110111111111111111111111011010111001011111111111111111111011011001100000000000000000000110001110000010000000000000000000010100100111100000000000000000010011111111110000000000000000000001111000100000000000000000000000010111001000100000000000000000000100110000100
1111111111111111111001000001111011111111111111111101000110000000111111111111111110111011001110001111111111111111110010110110110100000000000000000101001001111101000000000000000000111101100001110000000000000000010001100000101011111111111111111110001110101001000000000000000000001011010001110000000000000000001111110101101011111111111111111110111110001000000000000000000000011111100110010000000000000000000011010011101111111111111111111110100010100101000000000000000000010010011101111111111111111111110100000000001100000000000000000100001101010100000000000000000000101001111000110000000000000000010000111111100100000000000000000001111011110001000000000000000000011001111110010000000000000000011110000110000000000000000000000001001100101011111111111111111111000010000100001111111111111111111101001000010000000000000000000101011011000100111111111111111111100101101000101111111111111111101001111010000100000000000000000001100010000010000000000000000000000000011111110000000000000000010010000011110100000000000000000001100010010111111111111111111111110010111001110000000000000000010111010010111000000000000000000100101001101111111111111111111111001000011110000000000000000000000111000100110100000000000000000101110110010000000000000000000000101011010101000000000000000000000011010011011011111111111111111101111101001111111111111111111101111000111010000000000000000000001000101010010100000000000000000011001110101100000000000000000000111101000101011111111111111111110011110111000111111111111111111111101010001011000000000000000000000010111100000000000000000000010011000101011111111111111111111111010001011111
1111111111111111100100011011111111111111111111111111111000110100111111111111111111110010001110101111111111111111110100100001111100000000000000000011110001000101000000000000000000101111000101101111111111111111111010110101110100000000000000000100110100111011000000000000000001001001110000110000000000000000001110001100011011111111111111111100101010000010111111111111111111111100011101000000000000000000000011101111001100000000000000000110000000000110111111111111111111100010101000011111111111111111110110011100010011111111111111111010110011110100000000000000000000001000011110001111111111111111100011010110110100000000000000000011001101011110000000000000000000001001010101010000000000000000001111110011100011111111111111111111111110001101000000000000000000001110100111000000000000000000010100000101111111111111111111111111001100110101000000000000000000110000011111100000000000000000001011001011100111111111111111111011011011101010000000000000000000010101010010000000000000000000010100010001100100000000000000000011001111111010111111111111111111011010010001000000000000000000000000010011010000000000000000000011000110001001000000000000000000111101010110001111111111111111111011000001110000000000000000000011010010100111111111111111111111000111111100011111111111111111101101010010100100000000000000000001010010100000111111111111111111101100000111001111111111111111110101011001000000000000000000000100100111101001111111111111111111010101111010000000000000000000001011011111011111111111111111111111101101010010000000000000000001101111111011101111111111111111101110011000100011111111111111111111111001011001
0000000000000000011000101001000111111111111111111101010101110100000000000000000001011001000000110000000000000000000000100010011011111111111111111111101011000011111111111111111111100111100111000000000000000000000101101010111111111111111111111111001010010000111111111111111111011111011001010000000000000000000010111001110000000000000000000010001000111001111111111111111111111000010101010000000000000000000101101000101011111111111111111011010001101011000000000000000000101000100100100000000000000000000010101101111100000000000000000011110011101111000000000000000001011110101001010000000000000000001100111011101000000000000000000011100111100110000000000000000000001011111101010000000000000000010001001000010000000000000000000010011000010111000000000000000000011111101110111111111111111111111000101011001100000000000000000011001110001101000000000000000000011011001101111111111111111111110111000100000011111111111111111110010000111111000000000000000001010110010011000000000000000000001001010011110000000000000000000001001110011111111111111111111111101000000001000000000000000000000101011011101100000000000000000001010011111010000000000000000000011111101110100000000000000000010010001000010100000000000000000011110110111011000000000000000001000101010101101111111111111111111110011001100100000000000000000001111010001100111111111111111110010110100011010000000000000000000000010101011111111111111111111100010000000101000000000000000001110010011000001111111111111111111100101111100011111111111111111100010001011101111111111111111111110111100110010000000000000000010100111101111100000000000000000001011001101011
0000000000000000001010001010110111111111111111111111011110010010000000000000000000000001011000100000000000000000001001100100101000000000000000000001001011011011111111111111111111000100011010000000000000000000001110100101110100000000000000000000110000110101000000000000000000000100010001000000000000000000000110110011111100000000000000000011000001100110111111111111111111100110000101100000000000000000000001111011111011111111111111111101011000010001111111111111111111011010000100000000000000000000010011101111000111111111111111111101110010000000000000000000000000100100111010001111111111111111111111101000001100000000000000000011001100011111111111111111111111010011100111000000000000000000000101101001111111111111111111111100101110100001000000000000000001001000100001010000000000000000000110111111000100000000000000000000010100001111000000000000000000100111010101101111111111111111111000000000110011111111111111111101111001010111111111111111111111100100101011001111111111111111110100111000111100000000000000000000110111101000111111111111111111011100010100000000000000000000001000001011101011111111111111111101111000101011000000000000000000110001000101110000000000000000000011000001010111111111111111111110000010100110000000000000000001000100111010101111111111111111101111101110001100000000000000000010100011100110000000000000000000111010110100011111111111111111111100010011111011111111111111111110110110010101000000000000000000101011001100100000000000000000001000010110011011111111111111111011111100011111000000000000000000000010111000100000000000000000000101000010100000000000000000000010011011101101
0000000000000000000100101000001000000000000000000011001110010111111111111111111110101111000000110000000000000000000111001100110000000000000000000101111111111100000000000000000000100011001000100000000000000000001001011010001011111111111111111111111001001001000000000000000001011000000011110000000000000000000110110101001111111111111111111100001000001000000000000000000000101000000010101111111111111111111110000111000100000000000000000111000100100101111111111111111110110010011110101111111111111111111101011110001111111111111111111100010111001010111111111111111111101000111110110000000000000000010011110011010011111111111111111111001011000100000000000000000000000110110001111111111111111111111011011011101011111111111111111110010010110010000000000000000000011010111010100000000000000000010001110010101000000000000000000100000001010011000000000000000000100011000001110000000000000000000001010010010000000000000000000010111010100010111111111111111111010100001000001111111111111111111001110011100111111111111111111110100110001001000000000000000000010110101001111111111111111111110100010110110000000000000000000011110000111101111111111111111111010000100110110000000000000000000100011011001000000000000000000010010001110110000000000000000000101011001111010000000000000000011000100111101100000000000000000000010000110000000000000000000001100000101111000000000000000000000000110111010100000000000000000001100000101000000000000000000000000010011001100000000000000000001001010010000100000000000000000101000000000111000000000000000000000101110111110000000000000000000010110010111100000000000000000010100100100010
0000000000000000011010000100101011111111111111111110111111000111111111111111111111110111001011110000000000000000001000001001110100000000000000000011110011001110000000000000000000011110111101100000000000000000010000101100101011111111111111111100010010100100111111111111111110111100011101000000000000000000001010111101011111111111111111111110000110101001000000000000000000011001101100000000000000000000000111111100000000000000000000000011100101110111111111111111111111011110001111010000000000000000000011011001001011111111111111111011000100101101000000000000000001010000100110010000000000000000100001000001001000000000000000000010010100110100000000000000000000010001111110110000000000000000001101011001010100000000000000000100111011111011000000000000000000000100000111100000000000000000000101110110101100000000000000000100101111111001000000000000000001110000000010001111111111111111110011110110010011111111111111111110000110111100111111111111111110111100000110110000000000000000000010101010001100000000000000000000110100101101111111111111111111001101011000000000000000000000000010111101001011111111111111111111111110001110111111111111111111001100011101100000000000000000001100010001100000000000000000000011010010000101000000000000000000110010111001011111111111111111111100101001111100000000000000000000100110111110111111111111111110101110001101010000000000000000000101100011111111111111111111111100100100101100000000000000000000011110110101111111111111111111110110000000010011111111111111111011001000011110000000000000000000110111001001010000000000000000010001101010110000000000000000000010111111001001
0000000000000000011100010100101111111111111111111110010000001110111111111111111111010011111011111111111111111111111100011111111000000000000000000101100101100010111111111111111111100100110011100000000000000000001000100111110000000000000000000001100110001000111111111111111111100001010010000000000000000000001001011100000000000000000000000010110110100001111111111111111111111111010010101111111111111111110101011101010000000000000000000100010100101010111111111111111111000110010101110000000000000000010101100010100011111111111111111110111100101011000000000000000000010100011011100000000000000000001111110111111111111111111111111100100010010000111111111111111110110001001110110000000000000000010000001000001111111111111111111100011110111111000000000000000000110001100100100000000000000000001111110111001000000000000000000100010010110011000000000000000001011101000001101111111111111111110110000010101100000000000000000010000101000001111111111111111111011110010110001111111111111111110000010010100111111111111111111011000100001011000000000000000000010011011110001111111111111111111101101011101111111111111111111101010011010001111111111111111111111010100010110000000000000000001110001111101100000000000000000011010100110011000000000000000000110000001111011111111111111111111100001100110111111111111111111111011110100101000000000000000000100001001110111111111111111111101101001000011011111111111111111011101000010010000000000000000000010000101011110000000000000000001010001110010011111111111111111111000001000101000000000000000000111010101011010000000000000000000111011011100000000000000000000100011011010001
1111111111111111101010100011110011111111111111111111101101111000000000000000000001000111101101111111111111111111110011011110111100000000000000000101001011011010000000000000000001001011010110011111111111111111110100100100010011111111111111111111001000111000000000000000000000110110001010110000000000000000010001101100100111111111111111111111010100000101000000000000000001100111010011001111111111111111111010011100011000000000000000000001000111000011000000000000000000100110011100001111111111111111111011001100111111111111111111111100011111100010000000000000000000010101010110100000000000000000001011011100000000000000000000000010011101010101000000000000000001000110011101100000000000000000000111100111011000000000000000000000111001110101111111111111111111111101111001111111111111111111111000100000011100000000000000000000110100011110000000000000000000010110100010110000000000000000001000010111010111111111111111111111101010001101000000000000000000110011111010110000000000000000000001101101111000000000000000000011010111000110111111111111111111110001010110101111111111111111110110110110011100000000000000000000000001101101111111111111111111111101011111000000000000000000000111111100100011111111111111111100011001110101111111111111111111101101111001000000000000000000001111000010011000000000000000000001010111000010111111111111111111110000100001000000000000000000000010010101111111111111111111111111111110010010000000000000000000010010011111101111111111111111101100000111111100000000000000000010100110110000000000000000000001011010000110000000000000000000000100101001010000000000000000000010000111110001
1111111111111111110111001101010000000000000000000101001110100111000000000000000000001011100010101111111111111111111111010101110100000000000000000101011101100001000000000000000001011110001110011111111111111111101111000000000000000000000000000010010011001010000000000000000001111001110111110000000000000000100011101001110011111111111111111100111011011010000000000000000001010001100010011111111111111111111011101110101100000000000000000000001111010101111111111111111111001000110001010000000000000000000010001010100011111111111111111110101111001010000000000000000000110001010001110000000000000000000011010011001100000000000000000001101010001000000000000000000000001110110110100000000000000000100010011111110111111111111111111111110001001111111111111111111111011110001001010000000000000000000001010011001011111111111111111110001100110100000000000000000000111111001011000000000000000000001011111101011000000000000000000110011000100001000000000000000000100101101011000000000000000000000011001011000100000000000000000000011111010000111111111111111111010101010101101111111111111111111011001001111000000000000000000101000010101110111111111111111110101011010011100000000000000000001001101001101111111111111111111100001101100011111111111111111111110010001100110000000000000000011100101110110000000000000000000010101101010010000000000000000000000001111010011111111111111111110100101101100111111111111111111110011110001010000000000000000000101010001111111111111111111111101011001000001000000000000000000011011000110010000000000000000001010111011000000000000000000000000111000110011100000000000000000000001110001011
1111111111111111111010101001000011111111111111111110111001100001000000000000000001011011101000111111111111111111111101010001110111111111111111111110011110001010111111111111111110001110111101010000000000000000011011110010100100000000000000000100100101110101000000000000000001000100100110000000000000000000000011000101100100000000000000000100100101000000000000000000000000010111100111011111111111111111111111011011001111111111111111110101111001110101111111111111111111100111011011000000000000000000010010011110010100000000000000000111100000001111000000000000000001001110010011111111111111111111101101111110100100000000000000000001000010100011000000000000000000000100010000110000000000000000000111001010001111111111111111111100010010111100000000000000000000100001100011111111111111111111111111101000100100000000000000000100110000100111111111111111111111001100011100011111111111111111101010111000011100000000000000000100101011110100111111111111111111010011101101100000000000000000010100110011100000000000000000000001001100101001111111111111111110111010100001000000000000000000010110010000100000000000000000000010011101111100111111111111111111111000111000001111111111111111110111011111100100000000000000000010110110001101000000000000000001110100010100101111111111111111110000111100011000000000000000000011100011000011111111111111111111000110000111100000000000000000010111011100101011111111111111111100000001000111000000000000000001111100110101111111111111111111101111101101101011111111111111111100100001010001111111111111111111011111010001000000000000000000100001000011001011111111111111111110111011001011
0000000000000000001110001110001000000000000000000000001000000010000000000000000000101111011111100000000000000000001100001001001111111111111111111101100111101000111111111111111111001010101110100000000000000000001000110101011111111111111111111111110110000011111111111111111110101011101001011111111111111111110110111000001000000000000000000001001000011001000000000000000000001100101011000000000000000000010011001001001111111111111111111010000001100010000000000000000000100001100001101111111111111111111011011111010100000000000000000001001010111111000000000000000001001000010010100000000000000000001010111101111100000000000000000111000101110010000000000000000000100111110000011111111111111111110011100000101100000000000000000011000001011010000000000000000000111000111001001111111111111111111001111011111100000000000000000010000001100011111111111111111111010001100101101111111111111111111110000100100000000000000000000000001000000110000000000000000000111001000110110000000000000000000000011110011000000000000000000100010101111011111111111111111111111001001010100000000000000000011000110011011100000000000000000010011101100010000000000000000010001100100100100000000000000000000010101000110100000000000000000010001100010001000000000000000001101001110010111111111111111111101001000000011011111111111111111111101110011101111111111111111111111011000110010000000000000000011100011100000100000000000000000010011110000001000000000000000000101000110010110000000000000000000001011111100111111111111111111101001011111011111111111111111111101111101010100000000000000000001100001101011011111111111111111101000011010111
0000000000000000000101100010100000000000000000000010111101101100111111111111111111110010111011100000000000000000010100011110001011111111111111111110010000011001111111111111111111111101000010001111111111111111110111011101001111111111111111111110010011110000000000000000000000011110111000011111111111111111111101101001000111111111111111111011101001111001000000000000000000001011110010010000000000000000001010101010101011111111111111111110110101000101111111111111111111001111100011010000000000000000000011101011010111111111111111111100111110101110111111111111111111011110111111100000000000000000001000100101111100000000000000000001110110111100000000000000000000101111100111110000000000000000001010000100100100000000000000000010101110101110000000000000000000101101001000111111111111111111110100100101011100000000000000000100101100101000111111111111111111110100011000010000000000000000010011001011000100000000000000000100001101100011111111111111111111010110111101101111111111111111110100101000010100000000000000000010000101101001111111111111111111101110101100010000000000000000001000111011010100000000000000000100100100010011000000000000000000000100110100111111111111111111111011001000101011111111111111111101100000011111000000000000000000100000010111100000000000000000010001001001011000000000000000000010001100010100000000000000000001100111100110110000000000000000001100001011110100000000000000000101000100011101111111111111111111011100001101010000000000000000010001000111111000000000000000000011100101110100111111111111111111101101000110101111111111111111111001010100111111111111111111111011010010000011
