111111110111001111111111100011011111111111001110000000000010100000000000010000001111111111100110111111111101001100000000011110101111111101010001111111111101110111111111101111001111111110100101000000000010100100000000100101001111111110000101111111110100010000000000100010001111111111100111000000000010000111111111101001001111111110011010111111111101100111111111010110011111111110110000111111111010000100000000001110001111111110101010111111111101001100000000011001000000000001010100
000000001000111011111111011110100000000010001010111111110101101011111111011010101111111101101000000000000101110111111111001001010000000000010101000000000101011100000000010000110000000001001111111111111111000011111111111010110000000001011010111111111101001011111111011001111111111111100010111111111011111100000000010111011111111111000100111111111110101111111111011101001111111100111001000000000001001100000000011110111111111111011111000000001010010011111111101111110000000000000001
111111111110001111111111010111000000000010001000111111111111001100000000011100011111111110110010111111111110000111111111111000011111111100111000000000000111000100000000100110000000000001010111111111111100011111111111100101011111111111100000111111111001101011111111101011101111111111101100111111111110100100000000001111111111111110011101000000000100101100000000010101100000000010011111000000000000110100000000001001111111111110110110111111110110110111111111001010110000000001110000
111111111101110111111111100001110000000001101010111111111100111100000000000101010000000000101011111111111001111011111111100000010000000000001110111111110101000000000000010010110000000010000010000000000000111011111111101010011111111111111010000000000110110111111111110101001111111111101010000000001001000100000000100000111111111101001110000000000001000100000000010101001111111111100010111111111000101111111111011001100000000001010110111111111001000100000000011110001111111111001110
111111111110101100000000011000101111111110100000000000000010100000000000000101000000000000111000111111111000010100000000000101100000000000001111111111111101100100000000000000111111111111011110000000000010100111111111100001111111111110100110000000000011011000000000001001001111111110110110111111110111100100000000010001000000000001010111000000000011011000000000010011100000000010000101000000000111111111111111100111101111111111100101000000000011010011111111101001111111111110000000
111111111011001100000000000101111111111101111000111111111011110000000000011011011111111111011111111111111011011111111111100100010000000000110101111111111010111111111111101011111111111110001101000000000100101000000000010011010000000010010000000000000011010000000000010000100000000000101000111111111111100111111111011101000000000000101100000000000011111000000000010100001111111110111000111111110110111111111111111000101111111110011010111111111111101000000000011011101111111111110010
111111111000111011111111111110111111111100111100000000001001000100000000000101010000000001111001000000000011010111111111110001100000000000010111000000000111001011111111010101011111111110000010111111111010001011111111011000000000000000110000111111111110000111111111010100000000000000011001111111111010001000000000010000000000000000110011111111111011101011111111111101010000000001000101000000000100011100000000011001000000000001101001111111111111101000000000001001000000000001011010
000000001000100100000000000001010000000001100000111111110010010111111111101101111111111100011100111111111001010111111111110011101111111110110111000000000010010011111111111000001111111101110010111111111001000100000000001110001111111101110001000000000000100000000000010010100000000000001001000000000100100011111111110001111111111101000010111111111110101000000000100000111111111111010111000000000011011000000000100001010000000000110110111111110111100111111111011011101111111101000001
000000000011001111111111110110001111111110110110111111111011111100000000000101101111111100011010000000000101000111111111101111011111111111111111111111111010110111111111100110011111111110010000000000000111001000000000001100101111111101101100000000000101100011111111100101001111111111100111000000000100100000000000010010010000000000110110000000000001011100000000000001101111111110110100000000000010111000000000001000100000000000110100000000000001001111111111100110010000000001000001
000000001000000000000000011011110000000000011000000000000010100111111111011000101111111110111101111111111000000100000000000110110000000010000010000000000011111100000000001000000000000000001011111111111011001011111111110010111111111101010010111111110011110111111111110100011111111111111011111111111110001011111111110111000000000000000100000000000001110000000000001000101111111110110100000000000110000011111111010101000000000001110100111111111001001000000000000010101111111101001110
