00000000000000000010101100100010
00000000000000000000111111000010
00000000000000000100001010000111
11111111111111111111110101010110
11111111111111111110101100110101
00000000000000000000010001011111
00000000000000000001001011011011
00000000000000000000001011110111
00000000000000000001001101010100
00000000000000000010110011110000
00000000000000000010100000110110
00000000000000000010000010010001
00000000000000000000000111001111
00000000000000000000110010000001
00000000000000000011001000111101
00000000000000000000001110010010
00000000000000000001100001101100
11111111111111111111011000001100
11111111111111111111011100100110
00000000000000000001000011100111
11111111111111111111110101010110
11111111111111111111101101010100
11111111111111111110101111000010
11111111111111111111100011111011
00000000000000000000110101001000
00000000000000000010011000001100
11111111111111111111011110011111
00000000000000000010010011011101
00000000000000000001110110101110
00000000000000000000110100101001
