00000000000000000010101010100100
00000000000000000001001000110101
00000000000000000011111110010010
00000000000000000010010101001011
00000000000000000001110111000000
00000000000000000011011000000010
00000000000000000101101110110000
00000000000000000001110000100100
00000000000000000000111100110101
00000000000000000001101011011010
00000000000000000010111101000111
00000000000000000000111111100110
11111111111111111110100110000100
00000000000000000011111001110101
11111111111111111111110000000111
00000000000000000001000101101100
00000000000000000010000011110000
00000000000000000000000001011001
00000000000000000001010111010111
00000000000000000010101100011111
11111111111111111111100001110101
00000000000000000010101110100010
00000000000000000001010001100111
00000000000000000001111100100100
00000000000000000001100011000110
00000000000000000010000011110000
00000000000000000001110000001110
00000000000000000001111011011011
00000000000000000010001101110001
00000000000000000000011110011011
00000000000000000000010010111101
00000000000000000000101111110010
00000000000000000001110010000111
00000000000000000011001011101010
00000000000000000001000100010010
00000000000000000100000010011011
00000000000000000000100100000010
00000000000000000010101111001110
00000000000000000000111010100110
00000000000000000010001111010111
00000000000000000000111110010100
11111111111111111111101010010100
00000000000000000000000011101001
00000000000000000011101000001110
00000000000000000001010101111001
00000000000000000001011010011001
00000000000000000000101010111011
00000000000000000001100110010000
00000000000000000000100100111000
00000000000000000010001011101101
