00000000000000000000001110111101
00000000000000000010111001110111
00000000000000000000110110101010
00000000000000000000000001010011
11111111111111111111000100001010
11111111111111111111110010110110
11111111111111111110000101101010
11111111111111111111101000001011
11111111111111111110110000100010
00000000000000000000011011110001
